<unk>	0
<s>	0
</s>	0
▁a	-0
in	-1
ing	-2
▁s	-3
▁w	-4
▁t	-5
▁o	-6
an	-7
▁b	-8
he	-9
▁A	-10
re	-11
▁in	-12
it	-13
▁p	-14
▁m	-15
er	-16
▁c	-17
le	-18
is	-19
ro	-20
▁the	-21
ar	-22
nd	-23
▁g	-24
▁on	-25
▁h	-26
▁d	-27
▁f	-28
al	-29
la	-30
ir	-31
at	-32
en	-33
▁is	-34
▁man	-35
▁of	-36
▁and	-37
om	-38
▁st	-39
ck	-40
lo	-41
ith	-42
▁with	-43
or	-44
ld	-45
et	-46
▁T	-47
un	-48
es	-49
▁to	-50
▁wom	-51
id	-52
on	-53
▁wh	-54
▁sh	-55
▁do	-56
and	-57
rou	-58
king	-59
▁are	-60
op	-61
wo	-62
ra	-63
ed	-64
ear	-65
▁woman	-66
ss	-67
her	-68
ic	-69
▁bo	-70
▁pla	-71
ut	-72
▁at	-73
all	-74
irt	-75
eop	-76
eople	-77
▁Two	-78
▁y	-79
▁re	-80
▁play	-81
ting	-82
▁l	-83
ch	-84
oun	-85
ers	-86
▁wear	-87
▁an	-88
▁wearing	-89
▁sit	-90
▁stand	-91
▁people	-92
wn	-93
▁r	-94
st	-95
ide	-96
ur	-97
ge	-98
ite	-99
▁shirt	-100
ild	-101
▁n	-102
oung	-103
▁j	-104
ile	-105
gh	-106
▁ho	-107
▁lo	-108
▁ch	-109
▁ba	-110
▁white	-111
irl	-112
▁co	-113
▁young	-114
el	-115
um	-116
▁wal	-117
ad	-118
▁girl	-119
ot	-120
ue	-121
▁dog	-122
lack	-123
▁fro	-124
▁out	-125
▁black	-126
▁his	-127
▁boy	-128
▁bl	-129
▁be	-130
▁while	-131
▁wat	-132
il	-133
▁blue	-134
▁th	-135
us	-136
ce	-137
am	-138
▁red	-139
▁e	-140
ver	-141
ts	-142
▁grou	-143
▁sitting	-144
▁men	-145
up	-146
ri	-147
▁hold	-148
▁standing	-149
▁ro	-150
▁playing	-151
▁stre	-152
▁child	-153
ard	-154
▁loo	-155
▁group	-156
▁street	-157
oo	-158
▁down	-159
ve	-160
ree	-161
nt	-162
im	-163
▁walking	-164
round	-165
▁la	-166
ow	-167
▁sm	-168
▁her	-169
low	-170
▁The	-171
▁front	-172
▁ta	-173
▁holding	-174
ks	-175
ke	-176
ul	-177
ress	-178
ent	-179
▁he	-180
air	-181
as	-182
▁gra	-183
▁water	-184
ct	-185
ion	-186
side	-187
▁k	-188
ie	-189
ach	-190
▁car	-191
▁dress	-192
bo	-193
▁po	-194
ying	-195
ain	-196
▁by	-197
tle	-198
ump	-199
▁for	-200
▁som	-201
▁Th	-202
▁up	-203
▁as	-204
▁ra	-205
reen	-206
hing	-207
▁run	-208
se	-209
ay	-210
igh	-211
ack	-212
▁S	-213
▁bu	-214
▁back	-215
▁wor	-216
ark	-217
red	-218
▁jump	-219
uit	-220
▁ne	-221
▁An	-222
▁green	-223
▁women	-224
▁M	-225
ittle	-226
▁one	-227
▁sw	-228
for	-229
row	-230
ap	-231
▁looking	-232
▁sk	-233
one	-234
▁hat	-235
▁sn	-236
▁outside	-237
▁rid	-238
form	-239
to	-240
▁bro	-241
ble	-242
▁Three	-243
ood	-244
ind	-245
▁le	-246
arge	-247
ren	-248
▁little	-249
rough	-250
▁side	-251
▁large	-252
▁bi	-253
ther	-254
▁through	-255
▁P	-256
▁v	-257
ball	-258
▁other	-259
ellow	-260
▁or	-261
▁snow	-262
▁ball	-263
▁brown	-264
▁yellow	-265
▁two	-266
erson	-267
ly	-268
▁sp	-269
▁over	-270
▁tra	-271
lass	-272
yc	-273
em	-274
ian	-275
▁from	-276
che	-277
ure	-278
▁their	-279
ng	-280
▁into	-281
▁fo	-282
xt	-283
▁person	-284
▁ma	-285
ning	-286
▁con	-287
▁hand	-288
▁build	-289
▁building	-290
ink	-291
alk	-292
lder	-293
▁children	-294
▁next	-295
ig	-296
▁small	-297
rowd	-298
▁near	-299
▁F	-300
other	-301
▁jack	-302
▁some	-303
▁dressed	-304
▁crowd	-305
▁jacket	-306
ight	-307
▁so	-308
▁grass	-309
ving	-310
▁clo	-311
board	-312
ate	-313
▁te	-314
ground	-315
dy	-316
walk	-317
▁wa	-318
▁riding	-319
▁se	-320
age	-321
▁running	-322
▁People	-323
ph	-324
ange	-325
ling	-326
▁off	-327
▁around	-328
▁another	-329
ield	-330
▁sc	-331
ount	-332
ycle	-333
ep	-334
▁C	-335
▁pa	-336
cer	-337
▁field	-338
ru	-339
▁table	-340
ick	-341
▁sidewalk	-342
▁Man	-343
lasses	-344
ff	-345
ity	-346
▁beach	-347
▁orange	-348
ist	-349
▁cam	-350
rying	-351
ine	-352
▁air	-353
▁go	-354
▁mo	-355
ross	-356
▁it	-357
▁ar	-358
▁fa	-359
ture	-360
▁stands	-361
▁pink	-362
▁per	-363
▁sits	-364
▁jumping	-365
▁beh	-366
▁behind	-367
▁blo	-368
▁watch	-369
▁work	-370
▁sun	-371
ip	-372
ll	-373
iling	-374
te	-375
sh	-376
ne	-377
ter	-378
▁perform	-379
▁un	-380
▁pic	-381
way	-382
▁background	-383
get	-384
ans	-385
ire	-386
und	-387
▁com	-388
ating	-389
▁park	-390
▁cl	-391
by	-392
▁top	-393
▁tal	-394
▁head	-395
▁bike	-396
▁sho	-397
▁rock	-398
ice	-399
▁dr	-400
▁read	-401
▁wall	-402
▁city	-403
cing	-404
ves	-405
▁player	-406
▁girls	-407
ud	-408
▁picture	-409
▁alo	-410
▁bic	-411
▁looks	-412
ame	-413
▁camer	-414
les	-415
uitar	-416
▁shor	-417
▁sur	-418
veral	-419
▁guitar	-420
▁that	-421
ool	-422
▁dan	-423
▁par	-424
▁hair	-425
▁bus	-426
ountain	-427
ches	-428
▁dogs	-429
▁W	-430
ill	-431
do	-432
▁clot	-433
ub	-434
pp	-435
▁camera	-436
▁wood	-437
▁gu	-438
▁talking	-439
▁ac	-440
ething	-441
▁B	-442
ors	-443
▁something	-444
ant	-445
ccer	-446
▁mid	-447
▁older	-448
▁ph	-449
phone	-450
▁along	-451
▁walk	-452
▁walks	-453
ants	-454
eat	-455
dle	-456
ive	-457
▁lady	-458
gether	-459
▁soccer	-460
▁together	-461
▁hel	-462
▁blond	-463
▁working	-464
▁bri	-465
▁food	-466
▁skate	-467
▁colo	-468
▁boys	-469
if	-470
▁gray	-471
▁As	-472
▁ad	-473
ket	-474
▁ben	-475
ore	-476
▁bicycle	-477
▁smiling	-478
qu	-479
ign	-480
kes	-481
our	-482
▁him	-483
▁uni	-484
ction	-485
gg	-486
▁has	-487
ol	-488
▁game	-489
▁O	-490
▁Asian	-491
▁guy	-492
▁them	-493
▁plays	-494
▁road	-495
▁uniform	-496
imb	-497
▁holds	-498
▁us	-499
pe	-500
▁pre	-501
▁comp	-502
▁sand	-503
umb	-504
ation	-505
▁je	-506
▁Four	-507
▁Se	-508
▁swim	-509
▁skateboard	-510
are	-511
shirt	-512
▁bench	-513
▁climb	-514
ale	-515
▁che	-516
▁und	-517
ath	-518
▁pants	-519
▁glasses	-520
▁br	-521
▁kid	-522
▁under	-523
est	-524
▁coup	-525
▁stage	-526
▁shorts	-527
gs	-528
ies	-529
sing	-530
mer	-531
▁pur	-532
▁carrying	-533
▁dirt	-534
▁suit	-535
ped	-536
▁abo	-537
▁get	-538
▁pain	-539
▁pro	-540
ward	-541
▁baby	-542
▁couple	-543
▁mountain	-544
▁face	-545
▁tree	-546
▁flo	-547
▁base	-548
▁wait	-549
▁outdo	-550
ha	-551
▁G	-552
ell	-553
▁sing	-554
hes	-555
▁fem	-556
oto	-557
led	-558
▁ha	-559
▁tan	-560
▁en	-561
▁Several	-562
▁bal	-563
▁bas	-564
ping	-565
▁old	-566
▁foot	-567
▁pool	-568
▁hor	-569
ag	-570
▁long	-571
▁stri	-572
▁jumps	-573
ok	-574
ull	-575
ust	-576
▁tri	-577
▁boat	-578
▁taking	-579
▁fl	-580
▁each	-581
▁race	-582
▁sign	-583
▁basket	-584
▁mic	-585
▁chair	-586
▁shop	-587
▁doing	-588
▁dark	-589
▁coat	-590
▁micro	-591
▁across	-592
▁watching	-593
uth	-594
ican	-595
uring	-596
▁mus	-597
▁jeans	-598
▁Y	-599
▁mot	-600
▁area	-601
▁team	-602
▁cat	-603
▁male	-604
▁middle	-605
mp	-606
▁att	-607
▁day	-608
▁photo	-609
▁ve	-610
▁hands	-611
met	-612
ple	-613
▁spe	-614
▁band	-615
▁helmet	-616
ugh	-617
ence	-618
▁store	-619
▁rest	-620
▁motor	-621
▁ground	-622
▁who	-623
▁wind	-624
▁horse	-625
▁de	-626
▁gat	-627
▁room	-628
▁bar	-629
▁performing	-630
ey	-631
ome	-632
▁toy	-633
▁swing	-634
stru	-635
▁surf	-636
ired	-637
▁eating	-638
▁female	-639
▁being	-640
▁sweat	-641
▁L	-642
▁baseball	-643
jo	-644
ful	-645
▁mouth	-646
▁color	-647
▁music	-648
ry	-649
▁op	-650
▁using	-651
▁ex	-652
▁Wom	-653
▁football	-654
▁Ch	-655
▁arm	-656
▁ten	-657
▁striped	-658
▁set	-659
▁she	-660
rel	-661
▁purple	-662
▁ca	-663
ment	-664
glasses	-665
iv	-666
cks	-667
ess	-668
nis	-669
▁sl	-670
▁look	-671
▁fis	-672
▁mar	-673
▁prep	-674
▁toward	-675
ming	-676
aper	-677
▁enjo	-678
▁runs	-679
▁train	-680
▁window	-681
▁adul	-682
▁cross	-683
struction	-684
ty	-685
▁tre	-686
▁whe	-687
haired	-688
▁Young	-689
▁ag	-690
▁past	-691
dd	-692
▁ob	-693
▁tennis	-694
▁reading	-695
▁sunglasses	-696
▁bot	-697
ching	-698
ner	-699
▁clothing	-700
▁three	-701
▁players	-702
▁microphone	-703
cean	-704
ents	-705
aur	-706
oking	-707
vered	-708
▁There	-709
ght	-710
▁flow	-711
ak	-712
ee	-713
▁its	-714
aring	-715
ted	-716
▁basketball	-717
ade	-718
▁cap	-719
▁fla	-720
▁ocean	-721
ance	-722
▁app	-723
▁dis	-724
▁show	-725
▁watches	-726
▁during	-727
▁motorc	-728
▁sa	-729
rest	-730
▁outf	-731
▁pass	-732
leep	-733
▁can	-734
▁kids	-735
▁restaur	-736
▁climbing	-737
lderly	-738
▁bright	-739
use	-740
▁again	-741
▁restaurant	-742
ix	-743
▁mark	-744
▁outfit	-745
▁against	-746
ley	-747
▁stick	-748
man	-749
ging	-750
▁fire	-751
▁umb	-752
rella	-753
▁dancing	-754
▁umbrella	-755
str	-756
▁bow	-757
▁rides	-758
▁smile	-759
ces	-760
▁open	-761
▁elderly	-762
▁throw	-763
ft	-764
▁I	-765
▁bag	-766
▁high	-767
▁hill	-768
io	-769
very	-770
▁dri	-771
▁li	-772
▁ri	-773
▁One	-774
▁des	-775
▁trees	-776
▁posing	-777
▁wooden	-778
▁about	-779
je	-780
▁having	-781
▁outdoor	-782
▁covered	-783
▁they	-784
ated	-785
▁drin	-786
▁market	-787
▁waiting	-788
ort	-789
▁all	-790
▁swimming	-791
ruck	-792
stum	-793
▁getting	-794
▁colorful	-795
utting	-796
▁floor	-797
▁costum	-798
ily	-799
aning	-800
▁bear	-801
▁trying	-802
▁construction	-803
▁workers	-804
▁motorcycle	-805
ycl	-806
▁very	-807
▁mat	-808
ial	-809
▁gr	-810
▁cle	-811
▁busy	-812
▁ice	-813
▁cell	-814
▁night	-815
▁shirts	-816
▁singing	-817
end	-818
vers	-819
▁kit	-820
▁pol	-821
▁cart	-822
▁fence	-823
vel	-824
▁hu	-825
▁new	-826
strum	-827
▁Woman	-828
▁instrum	-829
ast	-830
▁met	-831
▁This	-832
▁book	-833
▁D	-834
ier	-835
iff	-836
▁fe	-837
ron	-838
ition	-839
▁path	-840
▁light	-841
od	-842
▁H	-843
ler	-844
▁bat	-845
▁stair	-846
▁compet	-847
ject	-848
less	-849
▁han	-850
chen	-851
▁Some	-852
▁line	-853
▁board	-854
▁laying	-855
▁ev	-856
▁Men	-857
▁pie	-858
▁sleep	-859
▁truck	-860
pack	-861
▁body	-862
▁hats	-863
▁ride	-864
▁paper	-865
▁clothes	-866
▁beard	-867
▁inside	-868
▁others	-869
▁kitchen	-870
ac	-871
cket	-872
▁cellphone	-873
ys	-874
▁cour	-875
▁kick	-876
▁grassy	-877
▁making	-878
▁surround	-879
▁river	-880
▁pus	-881
▁backpack	-882
▁"	-883
gra	-884
▁brick	-885
▁track	-886
▁bik	-887
▁laugh	-888
▁metal	-889
▁takes	-890
wing	-891
▁art	-892
▁big	-893
▁towards	-894
ckey	-895
▁full	-896
▁step	-897
▁enjoying	-898
sc	-899
als	-900
▁cow	-901
▁mach	-902
iz	-903
▁af	-904
ny	-905
▁ready	-906
▁al	-907
able	-908
▁cre	-909
▁hard	-910
▁tank	-911
cor	-912
▁cor	-913
br	-914
ses	-915
tic	-916
▁me	-917
ines	-918
▁gather	-919
▁Five	-920
▁drum	-921
▁R	-922
oot	-923
pla	-924
ding	-925
▁Child	-926
▁piece	-927
▁sweater	-928
▁painting	-929
▁sub	-930
▁lake	-931
▁trick	-932
▁pl	-933
▁tr	-934
▁above	-935
▁several	-936
▁photogra	-937
▁am	-938
ller	-939
rican	-940
ird	-941
hered	-942
iving	-943
▁count	-944
▁going	-945
ere	-946
▁box	-947
▁kne	-948
merican	-949
▁many	-950
▁dance	-951
▁snowy	-952
▁stone	-953
▁colored	-954
art	-955
ork	-956
ved	-957
▁bes	-958
▁brid	-959
▁vest	-960
▁wave	-961
▁wheel	-962
▁shopping	-963
co	-964
we	-965
ym	-966
ium	-967
ons	-968
▁hi	-969
riend	-970
▁onto	-971
▁class	-972
▁uniforms	-973
▁surrounded	-974
ched	-975
ones	-976
▁tur	-977
▁worker	-978
▁fr	-979
room	-980
▁dra	-981
elling	-982
▁snowboard	-983
sp	-984
▁cra	-985
▁sha	-986
▁smiles	-987
▁crowded	-988
▁pra	-989
▁beside	-990
▁outdoors	-991
▁E	-992
aut	-993
ists	-994
▁bre	-995
▁pul	-996
▁gear	-997
▁todd	-998
▁adults	-999
▁convers	-1000
▁pole	-1001
▁rain	-1002
▁stud	-1003
▁house	-1004
▁drinking	-1005
▁2	-1006
uch	-1007
▁Af	-1008
▁lif	-1009
amily	-1010
▁poin	-1011
▁after	-1012
▁phone	-1013
ary	-1014
▁jo	-1015
▁lea	-1016
▁teen	-1017
pt	-1018
iew	-1019
iful	-1020
▁door	-1021
autiful	-1022
▁fountain	-1023
▁gathered	-1024
▁hit	-1025
▁boot	-1026
▁chas	-1027
▁leap	-1028
▁event	-1029
▁hanging	-1030
ich	-1031
ates	-1032
▁ele	-1033
ather	-1034
▁catch	-1035
▁bridge	-1036
▁subway	-1037
sel	-1038
▁ap	-1039
▁we	-1040
ffit	-1041
ening	-1042
gging	-1043
▁arms	-1044
▁ballo	-1045
▁carri	-1046
▁family	-1047
▁friend	-1048
▁African	-1049
▁flowers	-1050
aged	-1051
▁gym	-1052
▁away	-1053
▁skirt	-1054
▁graffit	-1055
▁preparing	-1056
ane	-1057
▁ey	-1058
unch	-1059
▁lot	-1060
ement	-1061
▁object	-1062
▁costume	-1063
▁leaning	-1064
▁toddler	-1065
bble	-1066
hair	-1067
ious	-1068
▁Many	-1069
▁attem	-1070
▁offic	-1071
▁short	-1072
▁steps	-1073
▁comput	-1074
▁forest	-1075
▁hockey	-1076
▁sleeping	-1077
▁beautiful	-1078
ime	-1079
▁no	-1080
▁ski	-1081
▁cont	-1082
▁does	-1083
▁guys	-1084
▁make	-1085
▁take	-1086
▁trail	-1087
▁fishing	-1088
▁graffiti	-1089
▁fil	-1090
▁rope	-1091
▁plaid	-1092
▁shoes	-1093
▁appear	-1094
▁machine	-1095
▁Children	-1096
ong	-1097
▁pat	-1098
▁vol	-1099
▁prepare	-1100
▁four	-1101
▁stro	-1102
▁adult	-1103
▁asian	-1104
▁N	-1105
app	-1106
ash	-1107
ish	-1108
lic	-1109
suit	-1110
▁equ	-1111
▁win	-1112
▁like	-1113
▁police	-1114
▁stairs	-1115
eep	-1116
▁cur	-1117
entle	-1118
▁conc	-1119
fe	-1120
ho	-1121
ery	-1122
▁lad	-1123
▁pub	-1124
ersey	-1125
▁pract	-1126
▁selling	-1127
▁shirtless	-1128
arf	-1129
ring	-1130
▁tall	-1131
▁sunny	-1132
▁jersey	-1133
▁setting	-1134
be	-1135
out	-1136
▁pe	-1137
▁bet	-1138
▁numb	-1139
yclist	-1140
▁glass	-1141
▁rocks	-1142
ps	-1143
bee	-1144
▁cup	-1145
▁opp	-1146
▁sky	-1147
iting	-1148
▁pose	-1149
▁stat	-1150
▁view	-1151
▁racing	-1152
▁sil	-1153
▁wet	-1154
ering	-1155
▁fore	-1156
▁list	-1157
▁cowbo	-1158
▁equip	-1159
▁chairs	-1160
▁gentle	-1161
▁volley	-1162
▁putting	-1163
av	-1164
isbee	-1165
▁both	-1166
▁corner	-1167
▁pushing	-1168
▁throwing	-1169
ats	-1170
hic	-1171
ween	-1172
▁blow	-1173
▁have	-1174
▁ramp	-1175
▁drink	-1176
▁slide	-1177
▁parade	-1178
▁public	-1179
▁between	-1180
▁sweatshirt	-1181
▁volleyball	-1182
▁kis	-1183
▁flip	-1184
▁plast	-1185
▁ladies	-1186
▁American	-1187
▁laughing	-1188
ined	-1189
cture	-1190
▁dist	-1191
▁flag	-1192
▁fruit	-1193
▁works	-1194
▁someone	-1195
▁computer	-1196
▁equipment	-1197
▁instruments	-1198
ase	-1199
▁ent	-1200
▁hot	-1201
▁squ	-1202
chool	-1203
▁fish	-1204
▁pick	-1205
▁rail	-1206
▁scen	-1207
▁shou	-1208
▁stop	-1209
▁vend	-1210
▁couch	-1211
▁vehic	-1212
▁displa	-1213
▁pictures	-1214
▁wr	-1215
rete	-1216
▁bed	-1217
▁gar	-1218
▁glo	-1219
cking	-1220
▁spea	-1221
▁woods	-1222
▁bottle	-1223
▁plastic	-1224
▁party	-1225
▁poses	-1226
▁which	-1227
▁concrete	-1228
▁playground	-1229
de	-1230
ope	-1231
▁but	-1232
▁pit	-1233
▁bird	-1234
▁dock	-1235
▁hood	-1236
▁stru	-1237
phones	-1238
▁statue	-1239
hed	-1240
ally	-1241
▁cig	-1242
iding	-1243
▁gold	-1244
▁yard	-1245
▁attemp	-1246
▁midair	-1247
▁winter	-1248
ace	-1249
▁mas	-1250
▁net	-1251
ggles	-1252
▁shovel	-1253
ert	-1254
▁ear	-1255
▁pad	-1256
▁was	-1257
▁bikes	-1258
▁bucket	-1259
▁cowboy	-1260
▁number	-1261
os	-1262
▁Bo	-1263
ical	-1264
ators	-1265
ience	-1266
ining	-1267
▁veget	-1268
ms	-1269
bor	-1270
uff	-1271
▁St	-1272
ctor	-1273
ests	-1274
▁emp	-1275
▁tat	-1276
▁anim	-1277
▁apron	-1278
▁reads	-1279
▁attire	-1280
▁seated	-1281
▁ite	-1282
▁fall	-1283
▁home	-1284
▁just	-1285
▁left	-1286
▁spor	-1287
▁stra	-1288
▁cream	-1289
▁distance	-1290
cl	-1291
▁ed	-1292
▁aud	-1293
▁ind	-1294
▁roo	-1295
▁beer	-1296
▁blan	-1297
▁happ	-1298
▁what	-1299
▁kneel	-1300
▁cooking	-1301
▁cutting	-1302
az	-1303
ns	-1304
ber	-1305
ini	-1306
ned	-1307
ric	-1308
▁Fr	-1309
head	-1310
▁bags	-1311
▁cliff	-1312
▁newsp	-1313
▁vests	-1314
▁where	-1315
▁school	-1316
▁pulling	-1317
▁buildings	-1318
ban	-1319
fet	-1320
lee	-1321
too	-1322
aret	-1323
▁cut	-1324
▁ser	-1325
▁plat	-1326
▁tent	-1327
aching	-1328
▁grill	-1329
▁rider	-1330
▁Little	-1331
▁cigaret	-1332
▁station	-1333
ug	-1334
▁var	-1335
▁Girl	-1336
▁bowl	-1337
▁wrest	-1338
▁tattoo	-1339
▁appears	-1340
▁practic	-1341
▁vegetable	-1342
ely	-1343
ony	-1344
▁inf	-1345
▁pot	-1346
ights	-1347
orses	-1348
▁bare	-1349
▁edge	-1350
▁rela	-1351
▁court	-1352
ctators	-1353
▁blanket	-1354
▁showing	-1355
▁crossing	-1356
▁mountains	-1357
▁instrument	-1358
▁vi	-1359
▁Ind	-1360
▁Grou	-1361
▁paint	-1362
▁scarf	-1363
▁structure	-1364
na	-1365
hle	-1366
ins	-1367
pher	-1368
▁ban	-1369
ading	-1370
▁land	-1371
▁Women	-1372
▁elect	-1373
▁right	-1374
▁bubble	-1375
▁filled	-1376
▁horses	-1377
▁nearby	-1378
▁performs	-1379
arm	-1380
cert	-1381
look	-1382
▁few	-1383
▁fix	-1384
lding	-1385
▁mart	-1386
▁pile	-1387
yclists	-1388
▁Frisbee	-1389
▁carries	-1390
▁driving	-1391
▁musician	-1392
cal	-1393
ser	-1394
ffee	-1395
▁mul	-1396
▁goal	-1397
▁break	-1398
▁shore	-1399
▁leaves	-1400
▁mother	-1401
▁bowling	-1402
▁friends	-1403
key	-1404
ven	-1405
▁ce	-1406
nding	-1407
▁cars	-1408
▁post	-1409
▁boots	-1410
▁parked	-1411
▁cigarette	-1412
du	-1413
ens	-1414
ings	-1415
ival	-1416
ives	-1417
▁lined	-1418
▁Person	-1419
▁flower	-1420
▁vendor	-1421
▁display	-1422
▁goggles	-1423
▁snowboarder	-1424
ops	-1425
cher	-1426
▁col	-1427
▁mud	-1428
▁ladd	-1429
▁shot	-1430
▁spla	-1431
▁athle	-1432
▁drums	-1433
▁talks	-1434
▁martial	-1435
▁painted	-1436
▁railing	-1437
▁vehicle	-1438
▁skateboarder	-1439
set	-1440
ivid	-1441
▁diff	-1442
▁dire	-1443
▁eyes	-1444
▁form	-1445
▁alley	-1446
▁lying	-1447
▁rocky	-1448
▁coffee	-1449
▁flying	-1450
▁roller	-1451
▁concert	-1452
▁dresses	-1453
▁smoking	-1454
men	-1455
▁kn	-1456
cord	-1457
fety	-1458
▁exp	-1459
▁arts	-1460
▁roof	-1461
▁time	-1462
▁Group	-1463
▁flags	-1464
▁relax	-1465
▁waves	-1466
ighting	-1467
▁safety	-1468
▁bathing	-1469
▁jackets	-1470
▁kicking	-1471
▁younger	-1472
▁prepares	-1473
▁swinging	-1474
▁newspaper	-1475
▁conversation	-1476
ail	-1477
ige	-1478
ugg	-1479
ered	-1480
rown	-1481
▁hik	-1482
erent	-1483
itary	-1484
▁bull	-1485
▁gymn	-1486
▁rode	-1487
▁close	-1488
▁gloves	-1489
▁country	-1490
▁parking	-1491
▁costumes	-1492
▁gentleman	-1493
▁photograph	-1494
▁practicing	-1495
▁spectators	-1496
ike	-1497
ise	-1498
upp	-1499
ush	-1500
▁qu	-1501
ater	-1502
▁Boy	-1503
▁dig	-1504
▁fun	-1505
▁mil	-1506
▁put	-1507
▁rep	-1508
▁pres	-1509
▁this	-1510
▁uses	-1511
▁bunch	-1512
▁ladder	-1513
▁onlook	-1514
▁cleaning	-1515
▁different	-1516
▁listening	-1517
▁competition	-1518
olo	-1519
▁res	-1520
ctive	-1521
▁coll	-1522
▁spra	-1523
▁items	-1524
▁scene	-1525
▁there	-1526
▁bearded	-1527
▁staring	-1528
▁skateboarding	-1529
cu	-1530
ids	-1531
ales	-1532
ural	-1533
▁cla	-1534
▁ham	-1535
▁mon	-1536
▁row	-1537
ividu	-1538
▁desk	-1539
▁lawn	-1540
▁mask	-1541
▁meal	-1542
▁empty	-1543
▁scoot	-1544
looking	-1545
▁bikini	-1546
▁giving	-1547
▁surfer	-1548
▁balloon	-1549
▁various	-1550
▁audience	-1551
▁bicycles	-1552
▁surfboard	-1553
ou	-1554
ays	-1555
ton	-1556
ette	-1557
ized	-1558
▁lit	-1559
▁among	-1560
▁leaps	-1561
▁rodeo	-1562
▁splas	-1563
▁Indian	-1564
▁drinks	-1565
▁Someone	-1566
▁onlookers	-1567
bb	-1568
alm	-1569
enc	-1570
irc	-1571
nic	-1572
▁Con	-1573
▁fol	-1574
▁not	-1575
▁tow	-1576
▁tro	-1577
▁tub	-1578
▁wed	-1579
cting	-1580
iness	-1581
▁cake	-1582
▁part	-1583
▁check	-1584
▁silver	-1585
▁sliding	-1586
▁platform	-1587
▁pointing	-1588
▁gathering	-1589
▁vegetables	-1590
cts	-1591
fore	-1592
▁kay	-1593
▁feet	-1594
▁sold	-1595
▁viol	-1596
▁obser	-1597
▁suits	-1598
▁cement	-1599
▁facing	-1600
▁sports	-1601
▁teenag	-1602
▁streets	-1603
lf	-1604
nel	-1605
pes	-1606
▁mem	-1607
▁bath	-1608
▁neck	-1609
▁rais	-1610
▁biker	-1611
▁before	-1612
▁waters	-1613
▁helmets	-1614
▁wedding	-1615
▁individu	-1616
▁speaking	-1617
▁competing	-1618
mo	-1619
eth	-1620
ken	-1621
▁pr	-1622
cers	-1623
▁Six	-1624
▁int	-1625
▁med	-1626
▁tie	-1627
▁fing	-1628
▁gets	-1629
▁huge	-1630
▁incl	-1631
▁lapt	-1632
▁scul	-1633
▁trad	-1634
▁match	-1635
▁sweep	-1636
▁teams	-1637
▁coming	-1638
▁business	-1639
▁classroom	-1640
▁tradition	-1641
mas	-1642
▁im	-1643
▁ur	-1644
rist	-1645
▁din	-1646
▁lap	-1647
allow	-1648
athon	-1649
▁garb	-1650
▁produ	-1651
▁purse	-1652
▁sings	-1653
▁tries	-1654
▁climbs	-1655
▁screen	-1656
▁surfing	-1657
▁students	-1658
▁traditional	-1659
eng	-1660
irro	-1661
pped	-1662
vert	-1663
▁airp	-1664
▁cano	-1665
▁circ	-1666
▁crou	-1667
▁talk	-1668
▁bride	-1669
▁clown	-1670
▁mirro	-1671
▁animal	-1672
▁violin	-1673
▁chasing	-1674
▁counter	-1675
▁kissing	-1676
▁military	-1677
aw	-1678
sk	-1679
els	-1680
▁da	-1681
case	-1682
self	-1683
▁ref	-1684
▁card	-1685
▁pull	-1686
▁same	-1687
▁sled	-1688
▁trun	-1689
▁walkway	-1690
▁writing	-1691
▁fighting	-1692
▁stroller	-1693
ars	-1694
avy	-1695
oks	-1696
uck	-1697
foot	-1698
read	-1699
▁gun	-1700
▁slo	-1701
▁sto	-1702
ticip	-1703
ustom	-1704
▁chef	-1705
▁exam	-1706
▁vide	-1707
▁decor	-1708
▁skier	-1709
▁waits	-1710
▁artist	-1711
▁sunset	-1712
▁females	-1713
▁kneeling	-1714
▁shoulder	-1715
th	-1716
ides	-1717
▁bur	-1718
▁end	-1719
▁tun	-1720
▁wra	-1721
▁cand	-1722
▁indo	-1723
▁shad	-1724
▁sort	-1725
▁tire	-1726
ession	-1727
▁cheer	-1728
▁place	-1729
▁sculp	-1730
ristmas	-1731
▁mirror	-1732
▁runner	-1733
▁waving	-1734
▁barefoot	-1735
▁attempting	-1736
ern	-1737
sed	-1738
▁cr	-1739
alle	-1740
ator	-1741
▁son	-1742
▁life	-1743
▁seen	-1744
▁balan	-1745
▁enjoy	-1746
▁inter	-1747
▁makes	-1748
▁signs	-1749
▁outfits	-1750
▁electric	-1751
▁marathon	-1752
ib	-1753
ki	-1754
aff	-1755
ied	-1756
ram	-1757
▁ty	-1758
cuss	-1759
iant	-1760
lebr	-1761
▁leg	-1762
aches	-1763
inese	-1764
▁gard	-1765
▁golf	-1766
▁padd	-1767
▁says	-1768
ticolo	-1769
vertis	-1770
▁chain	-1771
▁celebr	-1772
▁course	-1773
▁father	-1774
▁tables	-1775
▁blowing	-1776
▁bubbles	-1777
▁officer	-1778
▁project	-1779
▁scooter	-1780
▁advertis	-1781
▁particip	-1782
▁multicolo	-1783
▁overlooking	-1784
og	-1785
tes	-1786
ung	-1787
▁har	-1788
lling	-1789
▁Work	-1790
▁bald	-1791
▁hole	-1792
▁meat	-1793
▁sell	-1794
▁stun	-1795
▁cover	-1796
▁happy	-1797
▁leans	-1798
▁urban	-1799
▁fixing	-1800
▁follow	-1801
▁lights	-1802
▁gymnast	-1803
▁leather	-1804
▁skating	-1805
▁balloons	-1806
ape	-1807
▁In	-1808
▁Sm	-1809
▁mag	-1810
▁five	-1811
▁oper	-1812
▁pier	-1813
▁tool	-1814
unette	-1815
▁alone	-1816
▁faces	-1817
▁collar	-1818
▁discuss	-1819
▁helping	-1820
▁microsc	-1821
▁brightly	-1822
▁musicians	-1823
▁umbrellas	-1824
▁foreground	-1825
▁Construction	-1826
▁photographer	-1827
ab	-1828
ous	-1829
ners	-1830
▁gro	-1831
▁ped	-1832
arate	-1833
ative	-1834
chair	-1835
lders	-1836
▁good	-1837
▁legs	-1838
▁made	-1839
▁site	-1840
▁stad	-1841
▁canoe	-1842
▁giant	-1843
▁plate	-1844
▁asleep	-1845
▁waterf	-1846
▁sculpture	-1847
▁headphones	-1848
za	-1849
ese	-1850
ips	-1851
lage	-1852
vice	-1853
▁gre	-1854
▁chur	-1855
▁star	-1856
▁tour	-1857
▁well	-1858
▁trash	-1859
▁video	-1860
▁wears	-1861
▁custom	-1862
▁diving	-1863
▁grocer	-1864
▁office	-1865
▁repair	-1866
▁sticks	-1867
▁swings	-1868
▁doorway	-1869
▁drawing	-1870
▁passing	-1871
▁sandals	-1872
▁stadium	-1873
▁washing	-1874
ia	-1875
amp	-1876
spe	-1877
▁Wh	-1878
ffic	-1879
lesc	-1880
▁bra	-1881
▁fur	-1882
▁ste	-1883
▁way	-1884
estri	-1885
▁toys	-1886
▁heads	-1887
▁stuff	-1888
cordion	-1889
▁string	-1890
▁falling	-1891
▁musical	-1892
▁officers	-1893
▁accordion	-1894
▁multicolored	-1895
alf	-1896
ang	-1897
ral	-1898
ult	-1899
band	-1900
bers	-1901
▁eng	-1902
▁mix	-1903
▁mod	-1904
▁smo	-1905
▁sus	-1906
ached	-1907
▁hall	-1908
▁prof	-1909
ughter	-1910
▁booth	-1911
▁dirty	-1912
▁leash	-1913
▁church	-1914
▁comple	-1915
▁includ	-1916
▁laptop	-1917
▁skiing	-1918
▁throws	-1919
▁picking	-1920
▁shallow	-1921
▁teenage	-1922
▁reaching	-1923
▁performance	-1924
bs	-1925
ew	-1926
mb	-1927
dge	-1928
que	-1929
orch	-1930
ught	-1931
▁ass	-1932
▁cas	-1933
▁eat	-1934
▁feat	-1935
▁pack	-1936
▁pond	-1937
▁prin	-1938
▁roll	-1939
▁below	-1940
▁clean	-1941
▁laund	-1942
▁males	-1943
▁prote	-1944
▁straw	-1945
▁hiking	-1946
▁digging	-1947
▁present	-1948
▁traffic	-1949
zz	-1950
ics	-1951
ord	-1952
ages	-1953
alls	-1954
back	-1955
cial	-1956
lead	-1957
▁fin	-1958
▁kha	-1959
▁log	-1960
▁mom	-1961
▁nap	-1962
▁pet	-1963
▁van	-1964
▁vis	-1965
acher	-1966
osing	-1967
uddle	-1968
▁atop	-1969
▁move	-1970
▁seem	-1971
▁soft	-1972
▁spot	-1973
▁tack	-1974
▁cloth	-1975
▁gives	-1976
▁inspe	-1977
▁passes	-1978
▁tunnel	-1979
▁upside	-1980
▁catches	-1981
▁hugging	-1982
▁catching	-1983
▁relaxing	-1984
▁direction	-1985
▁microscope	-1986
res	-1987
▁Gu	-1988
slee	-1989
▁act	-1990
▁fre	-1991
▁lab	-1992
▁spr	-1993
stand	-1994
▁shoe	-1995
▁balls	-1996
▁beige	-1997
▁block	-1998
▁shows	-1999
▁stunt	-2000
▁suspe	-2001
▁garden	-2002
▁sleeps	-2003
▁Chinese	-2004
▁dancers	-2005
▁leaping	-2006
▁brunette	-2007
▁sweeping	-2008
▁Christmas	-2009
affo	-2010
ront	-2011
work	-2012
▁dun	-2013
▁eye	-2014
▁fan	-2015
▁sea	-2016
▁tou	-2017
light	-2018
▁cafe	-2019
▁fest	-2020
▁hose	-2021
▁pupp	-2022
▁Black	-2023
▁coats	-2024
▁fight	-2025
▁flies	-2026
▁round	-2027
▁stret	-2028
▁teeth	-2029
▁desert	-2030
▁hammer	-2031
▁hoodie	-2032
▁scaffo	-2033
▁singer	-2034
▁stream	-2035
▁telesc	-2036
▁tracks	-2037
▁trunks	-2038
▁resting	-2039
▁daughter	-2040
▁swimsuit	-2041
▁conversing	-2042
ca	-2043
its	-2044
ret	-2045
uzz	-2046
ient	-2047
▁how	-2048
▁hur	-2049
cross	-2050
ental	-2051
neath	-2052
wards	-2053
▁balc	-2054
▁cold	-2055
▁fair	-2056
▁fram	-2057
▁held	-2058
▁town	-2059
▁appro	-2060
▁guard	-2061
▁stack	-2062
▁karate	-2063
▁plants	-2064
▁points	-2065
▁racket	-2066
▁square	-2067
▁contain	-2068
▁jogging	-2069
▁suspend	-2070
▁splashing	-2071
▁telescope	-2072
▁wrestling	-2073
▁underneath	-2074
▁z	-2075
cas	-2076
ina	-2077
lat	-2078
pan	-2079
▁So	-2080
lers	-2081
▁exc	-2082
▁rob	-2083
▁sax	-2084
allen	-2085
arrow	-2086
enter	-2087
fight	-2088
nival	-2089
oline	-2090
pping	-2091
▁cane	-2092
▁help	-2093
▁hula	-2094
▁mess	-2095
▁must	-2096
selves	-2097
▁books	-2098
▁colle	-2099
▁curly	-2100
▁magaz	-2101
▁spray	-2102
▁tramp	-2103
▁moving	-2104
▁underw	-2105
▁passeng	-2106
▁without	-2107
▁including	-2108
▁shoulders	-2109
▁themselves	-2110
bla	-2111
com	-2112
ife	-2113
ino	-2114
oph	-2115
ute	-2116
▁es	-2117
▁Old	-2118
▁bel	-2119
▁low	-2120
▁pin	-2121
▁ret	-2122
erman	-2123
fully	-2124
▁deck	-2125
▁deep	-2126
▁kind	-2127
▁tong	-2128
▁wine	-2129
▁wire	-2130
▁Small	-2131
▁hiker	-2132
▁kayak	-2133
▁mural	-2134
▁sheet	-2135
▁taken	-2136
▁crying	-2137
▁dinner	-2138
▁makeup	-2139
▁pulled	-2140
▁tricks	-2141
▁wooded	-2142
▁Workers	-2143
▁cyclist	-2144
▁produce	-2145
▁wetsuit	-2146
▁carnival	-2147
▁matching	-2148
▁opposing	-2149
▁bicyclist	-2150
▁crosswalk	-2151
▁trampoline	-2152
▁individuals	-2153
aks	-2154
ual	-2155
▁Te	-2156
iers	-2157
▁cri	-2158
▁fig	-2159
▁key	-2160
▁ter	-2161
eding	-2162
▁brus	-2163
▁knee	-2164
▁lone	-2165
▁nose	-2166
▁rece	-2167
▁refle	-2168
▁closed	-2169
▁dances	-2170
▁infant	-2171
▁picnic	-2172
▁sewing	-2173
▁stroll	-2174
▁members	-2175
▁pitcher	-2176
▁rolling	-2177
▁stuffed	-2178
▁surface	-2179
▁attempts	-2180
▁performer	-2181
▁profession	-2182
▁wheelchair	-2183
ara	-2184
let	-2185
tom	-2186
udy	-2187
yle	-2188
▁Co	-2189
ital	-2190
ness	-2191
ular	-2192
▁rug	-2193
ature	-2194
ustic	-2195
▁goes	-2196
▁hoop	-2197
▁lays	-2198
▁ring	-2199
icycle	-2200
▁These	-2201
▁bever	-2202
▁slope	-2203
▁third	-2204
▁trans	-2205
leaders	-2206
riental	-2207
▁blouse	-2208
▁bottom	-2209
▁button	-2210
▁center	-2211
▁circle	-2212
▁pushes	-2213
▁saxoph	-2214
estrians	-2215
▁balcony	-2216
▁himself	-2217
▁opening	-2218
▁softball	-2219
ipe	-2220
ond	-2221
per	-2222
rol	-2223
road	-2224
yard	-2225
▁dry	-2226
▁mop	-2227
▁rub	-2228
▁see	-2229
▁bent	-2230
▁cond	-2231
▁cons	-2232
▁jugg	-2233
▁most	-2234
▁puts	-2235
▁shoo	-2236
▁skis	-2237
▁tile	-2238
▁turn	-2239
illing	-2240
▁boxes	-2241
▁lunch	-2242
▁pulls	-2243
▁sandy	-2244
▁steep	-2245
artment	-2246
▁chases	-2247
▁device	-2248
▁formal	-2249
▁indoor	-2250
▁speaks	-2251
▁sprink	-2252
▁travel	-2253
▁athlete	-2254
▁staircase	-2255
▁i	-2256
cted	-2257
dium	-2258
lane	-2259
ster	-2260
▁Guy	-2261
▁gaz	-2262
place	-2263
scape	-2264
▁cook	-2265
▁robe	-2266
atting	-2267
▁fresh	-2268
▁paved	-2269
▁stare	-2270
▁swims	-2271
▁design	-2272
▁drives	-2273
▁enjoys	-2274
▁fallen	-2275
▁podium	-2276
▁grocery	-2277
▁shaking	-2278
▁covering	-2279
▁festival	-2280
▁keyboard	-2281
▁overalls	-2282
ger	-2283
gon	-2284
▁At	-2285
apan	-2286
icem	-2287
ited	-2288
ried	-2289
tend	-2290
▁New	-2291
▁den	-2292
▁pan	-2293
apers	-2294
▁curb	-2295
▁farm	-2296
▁fenc	-2297
▁gate	-2298
▁jean	-2299
▁loun	-2300
▁nice	-2301
▁pian	-2302
▁slee	-2303
▁tele	-2304
ashion	-2305
vement	-2306
▁Older	-2307
▁birds	-2308
▁chalk	-2309
▁grind	-2310
▁heavy	-2311
▁kicks	-2312
▁mound	-2313
▁porch	-2314
▁robes	-2315
▁stool	-2316
covered	-2317
▁dancer	-2318
▁driver	-2319
▁figure	-2320
▁hikers	-2321
▁puddle	-2322
▁fingers	-2323
▁laundry	-2324
▁pouring	-2325
▁shaving	-2326
▁windows	-2327
▁marching	-2328
▁customers	-2329
▁gentlemen	-2330
▁teenagers	-2331
▁waterfall	-2332
▁bicyclists	-2333
ads	-2334
bat	-2335
fts	-2336
▁AT	-2337
▁ke	-2338
▁tw	-2339
merg	-2340
tail	-2341
test	-2342
uses	-2343
▁bou	-2344
▁cho	-2345
▁don	-2346
▁lay	-2347
▁mer	-2348
dress	-2349
illow	-2350
osite	-2351
range	-2352
▁Here	-2353
▁carp	-2354
▁dust	-2355
▁lies	-2356
▁lots	-2357
▁palm	-2358
▁polo	-2359
▁sale	-2360
▁ship	-2361
uggage	-2362
▁arena	-2363
▁barbe	-2364
▁groom	-2365
▁hangs	-2366
▁khaki	-2367
▁ledge	-2368
▁local	-2369
▁piano	-2370
▁poles	-2371
▁sheep	-2372
▁blocks	-2373
▁cloudy	-2374
▁colors	-2375
▁golden	-2376
▁evening	-2377
▁foreign	-2378
▁reaches	-2379
▁wrapped	-2380
▁airplane	-2381
▁attached	-2382
▁backyard	-2383
▁checking	-2384
▁opposite	-2385
▁oriental	-2386
▁paddling	-2387
▁shooting	-2388
▁teenager	-2389
▁shoveling	-2390
▁protective	-2391
".	-2392
ka	-2393
ato	-2394
der	-2395
ift	-2396
jam	-2397
ouf	-2398
anta	-2399
ersk	-2400
ible	-2401
itor	-2402
time	-2403
▁adj	-2404
▁def	-2405
▁pos	-2406
▁vac	-2407
ively	-2408
▁amus	-2409
▁bran	-2410
▁fabr	-2411
▁lift	-2412
▁pair	-2413
▁port	-2414
▁poss	-2415
▁raft	-2416
▁type	-2417
inning	-2418
▁clear	-2419
▁cones	-2420
▁denim	-2421
▁oppon	-2422
▁pajam	-2423
▁sword	-2424
latable	-2425
ouflage	-2426
▁bandan	-2427
▁fenced	-2428
▁pillow	-2429
▁poster	-2430
▁tongue	-2431
▁luggage	-2432
▁policem	-2433
▁jumpsuit	-2434
▁pavement	-2435
▁position	-2436
▁balancing	-2437
▁saxophone	-2438
▁camouflage	-2439
▁inflatable	-2440
ced	-2441
cut	-2442
ets	-2443
oon	-2444
vis	-2445
whe	-2446
▁Sp	-2447
▁di	-2448
▁yo	-2449
land	-2450
oney	-2451
ower	-2452
ured	-2453
▁far	-2454
▁orn	-2455
▁sec	-2456
ident	-2457
inned	-2458
tyard	-2459
▁beam	-2460
▁camp	-2461
▁cast	-2462
▁eats	-2463
▁kiss	-2464
▁plan	-2465
▁refe	-2466
▁seat	-2467
▁wild	-2468
ertain	-2469
▁chest	-2470
▁escal	-2471
▁frame	-2472
▁image	-2473
▁shoot	-2474
▁walls	-2475
▁buying	-2476
▁fabric	-2477
▁flight	-2478
▁goalie	-2479
▁headsc	-2480
▁laughs	-2481
▁shadow	-2482
▁skirts	-2483
▁married	-2484
▁tractor	-2485
▁floating	-2486
▁juggling	-2487
▁railroad	-2488
▁courtyard	-2489
▁motorcycles	-2490
▁professional	-2491
cy	-2492
ma	-2493
ti	-2494
wk	-2495
day	-2496
eds	-2497
ten	-2498
vol	-2499
▁ju	-2500
iple	-2501
stra	-2502
▁Dog	-2503
▁aco	-2504
▁eit	-2505
▁map	-2506
▁pig	-2507
▁rou	-2508
▁sim	-2509
▁sum	-2510
▁sup	-2511
tered	-2512
▁club	-2513
▁meet	-2514
▁toss	-2515
▁Santa	-2516
▁boats	-2517
▁bread	-2518
▁coast	-2519
▁goods	-2520
▁moves	-2521
▁shown	-2522
▁socks	-2523
▁tools	-2524
▁towel	-2525
▁carpet	-2526
▁either	-2527
▁floral	-2528
▁hurdle	-2529
▁riders	-2530
▁bucking	-2531
▁garbage	-2532
▁happily	-2533
▁jerseys	-2534
▁pajamas	-2535
▁soldier	-2536
▁acoustic	-2537
▁bandanna	-2538
▁carriage	-2539
▁cheering	-2540
▁rollersk	-2541
▁soldiers	-2542
▁touching	-2543
▁backwards	-2544
▁entertain	-2545
▁firefight	-2546
▁suspended	-2547
▁marketplace	-2548
▁scaffolding	-2549
ds	-2550
nds	-2551
ory	-2552
uro	-2553
wel	-2554
aker	-2555
aped	-2556
hood	-2557
ipes	-2558
line	-2559
lymp	-2560
stac	-2561
ucas	-2562
▁Che	-2563
▁egg	-2564
▁fly	-2565
▁hay	-2566
▁rac	-2567
▁six	-2568
▁tar	-2569
▁war	-2570
▁Male	-2571
▁boun	-2572
▁chop	-2573
▁cool	-2574
▁fans	-2575
▁supp	-2576
▁tops	-2577
ention	-2578
▁Seven	-2579
▁White	-2580
▁broom	-2581
▁float	-2582
▁invol	-2583
▁model	-2584
▁peace	-2585
▁plant	-2586
▁plaza	-2587
▁rugby	-2588
▁shade	-2589
▁snack	-2590
▁stove	-2591
▁teamm	-2592
apanese	-2593
skinned	-2594
sleeved	-2595
ucasian	-2596
▁German	-2597
▁barrel	-2598
▁caught	-2599
▁dining	-2600
▁kneels	-2601
▁living	-2602
▁obstac	-2603
▁paints	-2604
▁parach	-2605
▁raised	-2606
▁airport	-2607
▁animals	-2608
▁harness	-2609
▁serving	-2610
▁teacher	-2611
▁welding	-2612
▁american	-2613
▁athletic	-2614
▁magazine	-2615
▁backpacks	-2616
▁escalator	-2617
▁landscape	-2618
▁underwater	-2619
▁advertisement	-2620
."	-2621
ik	-2622
ws	-2623
bow	-2624
cue	-2625
erc	-2626
lit	-2627
med	-2628
▁Ar	-2629
▁Ca	-2630
bile	-2631
erby	-2632
erse	-2633
mers	-2634
tery	-2635
▁use	-2636
ently	-2637
▁York	-2638
▁cere	-2639
▁doll	-2640
▁fast	-2641
▁liqu	-2642
▁neon	-2643
▁pige	-2644
▁pipe	-2645
▁pony	-2646
▁tube	-2647
ations	-2648
▁dread	-2649
▁drive	-2650
▁heart	-2651
▁plane	-2652
▁polka	-2653
▁seems	-2654
▁trump	-2655
chestra	-2656
▁action	-2657
▁finger	-2658
▁gravel	-2659
▁hooded	-2660
▁jockey	-2661
▁neckla	-2662
▁storef	-2663
▁thrown	-2664
▁bending	-2665
▁climber	-2666
▁fashion	-2667
▁haircut	-2668
▁referee	-2669
▁runners	-2670
▁student	-2671
▁brushing	-2672
▁grilling	-2673
▁obstacle	-2674
▁amusement	-2675
▁examining	-2676
▁operating	-2677
▁rollerbla	-2678
▁participating	-2679
ech	-2680
gel	-2681
ilt	-2682
rop	-2683
unk	-2684
ills	-2685
like	-2686
▁Blo	-2687
▁adm	-2688
▁beg	-2689
▁ext	-2690
▁fen	-2691
▁fir	-2692
▁ges	-2693
▁loc	-2694
▁try	-2695
akers	-2696
hound	-2697
ister	-2698
ungle	-2699
▁care	-2700
▁cone	-2701
▁dump	-2702
▁half	-2703
▁knit	-2704
▁ribb	-2705
▁rout	-2706
▁sets	-2707
▁thin	-2708
▁trip	-2709
▁warm	-2710
▁wide	-2711
shirts	-2712
▁candy	-2713
▁exerc	-2714
▁heels	-2715
▁money	-2716
▁muddy	-2717
▁outst	-2718
▁print	-2719
▁ropes	-2720
▁sandw	-2721
▁sport	-2722
▁thumb	-2723
▁wagon	-2724
▁youth	-2725
▁jungle	-2726
▁motorb	-2727
▁sleeve	-2728
▁studio	-2729
▁things	-2730
▁attempt	-2731
▁benches	-2732
▁compete	-2733
▁frisbee	-2734
▁gesture	-2735
▁hallway	-2736
▁hitting	-2737
▁protest	-2738
▁redhead	-2739
▁sharing	-2740
▁bathroom	-2741
▁crouches	-2742
▁cyclists	-2743
▁opponent	-2744
▁practice	-2745
▁sticking	-2746
▁vehicles	-2747
▁checkered	-2748
▁decorated	-2749
▁headscarf	-2750
▁orchestra	-2751
▁individual	-2752
▁pedestrians	-2753
▁photographs	-2754
▁presentation	-2755
cc	-2756
me	-2757
so	-2758
wl	-2759
ggy	-2760
hib	-2761
iet	-2762
iny	-2763
umn	-2764
usk	-2765
zer	-2766
▁Do	-2767
▁tu	-2768
ache	-2769
etra	-2770
ibly	-2771
uffy	-2772
▁ble	-2773
▁dem	-2774
▁emb	-2775
▁foc	-2776
▁you	-2777
aking	-2778
erial	-2779
ility	-2780
inery	-2781
ption	-2782
rench	-2783
▁also	-2784
▁appl	-2785
▁arch	-2786
▁dish	-2787
▁ears	-2788
▁entr	-2789
▁leaf	-2790
▁moto	-2791
▁muzz	-2792
▁only	-2793
▁sack	-2794
▁sink	-2795
etrack	-2796
iewing	-2797
isting	-2798
ycling	-2799
yhound	-2800
▁Brown	-2801
▁eleph	-2802
▁jewel	-2803
▁neigh	-2804
▁patio	-2805
▁racer	-2806
▁rests	-2807
▁start	-2808
▁cleans	-2809
▁fruits	-2810
▁garage	-2811
▁native	-2812
▁patter	-2813
▁rowing	-2814
▁slides	-2815
▁speech	-2816
▁summer	-2817
▁ceiling	-2818
▁control	-2819
▁drummer	-2820
▁excited	-2821
▁feeding	-2822
▁guitars	-2823
▁barbecue	-2824
▁mustache	-2825
▁sporting	-2826
▁machinery	-2827
▁motocross	-2828
▁policeman	-2829
▁racetrack	-2830
▁passengers	-2831
▁skateboards	-2832
▁snowboarding	-2833
ady	-2834
eum	-2835
ges	-2836
ica	-2837
ilo	-2838
loy	-2839
mat	-2840
mon	-2841
uba	-2842
▁BM	-2843
▁Br	-2844
▁On	-2845
▁gl	-2846
▁sy	-2847
ards	-2848
hawk	-2849
irth	-2850
rier	-2851
used	-2852
▁She	-2853
▁aqu	-2854
▁dim	-2855
▁rec	-2856
▁sal	-2857
▁tag	-2858
▁tho	-2859
▁wea	-2860
jects	-2861
truck	-2862
▁hosp	-2863
▁keep	-2864
▁lane	-2865
▁pine	-2866
▁puck	-2867
▁surg	-2868
astern	-2869
▁Blond	-2870
▁Crowd	-2871
▁Olymp	-2872
▁brush	-2873
▁cloud	-2874
▁coach	-2875
▁exhib	-2876
▁rough	-2877
▁sells	-2878
borhood	-2879
▁bikers	-2880
▁bushes	-2881
▁museum	-2882
▁narrow	-2883
▁baskets	-2884
▁herself	-2885
▁interse	-2886
▁leaving	-2887
▁observe	-2888
▁petting	-2889
▁routine	-2890
▁stopped	-2891
▁trumpet	-2892
▁beverage	-2893
▁electron	-2894
▁entrance	-2895
▁headband	-2896
▁hillside	-2897
▁hospital	-2898
▁possibly	-2899
▁sandwich	-2900
▁boardwalk	-2901
▁horseback	-2902
▁photograp	-2903
▁discussion	-2904
▁intersection	-2905
ex	-2906
fa	-2907
flo	-2908
gan	-2909
hou	-2910
ior	-2911
uts	-2912
▁Ho	-2913
▁Mo	-2914
▁Ro	-2915
▁Sh	-2916
aked	-2917
boat	-2918
down	-2919
gged	-2920
ions	-2921
roon	-2922
▁Mus	-2923
▁cab	-2924
▁cal	-2925
▁dep	-2926
▁lan	-2927
▁nur	-2928
▁pen	-2929
▁tax	-2930
▁vil	-2931
aters	-2932
fting	-2933
house	-2934
ially	-2935
iddle	-2936
locks	-2937
pherd	-2938
rence	-2939
▁Fire	-2940
▁Lady	-2941
▁brow	-2942
▁clay	-2943
▁dune	-2944
▁free	-2945
▁load	-2946
▁main	-2947
▁mall	-2948
▁navy	-2949
▁sail	-2950
▁scre	-2951
▁song	-2952
ightly	-2953
vision	-2954
▁Large	-2955
▁ahead	-2956
▁chase	-2957
▁condu	-2958
▁fancy	-2959
▁finis	-2960
▁helps	-2961
▁puppy	-2962
▁seats	-2963
▁smoke	-2964
▁super	-2965
▁terra	-2966
irthday	-2967
retched	-2968
▁chains	-2969
▁cobble	-2970
▁dishes	-2971
▁maroon	-2972
▁mixing	-2973
▁mostly	-2974
▁ornate	-2975
▁rubber	-2976
▁silhou	-2977
▁skates	-2978
▁spread	-2979
▁stones	-2980
▁transp	-2981
▁african	-2982
▁bottles	-2983
▁buckets	-2984
▁fencing	-2985
▁folding	-2986
▁indoors	-2987
▁patient	-2988
▁tattooed	-2989
▁cardboard	-2990
▁container	-2991
▁handstand	-2992
▁squatting	-2993
▁celebrating	-2994
▁microphones	-2995
▁motorcyclist	-2996
▁neighborhood	-2997
▁outstretched	-2998
ai	-2999
eb	-3000
go	-3001
pa	-3002
des	-3003
nit	-3004
top	-3005
uum	-3006
ames	-3007
cess	-3008
ency	-3009
ilar	-3010
lded	-3011
quet	-3012
reet	-3013
ucks	-3014
umer	-3015
▁aut	-3016
▁bla	-3017
▁buy	-3018
▁cro	-3019
▁del	-3020
▁dro	-3021
▁gas	-3022
▁hum	-3023
▁odd	-3024
▁own	-3025
▁pee	-3026
brary	-3027
onstr	-3028
pical	-3029
stick	-3030
uting	-3031
▁Stud	-3032
▁amid	-3033
▁bagp	-3034
▁bars	-3035
▁bean	-3036
▁belt	-3037
▁bill	-3038
▁burg	-3039
▁calf	-3040
▁hugs	-3041
▁item	-3042
▁kite	-3043
▁lamp	-3044
▁pump	-3045
▁rink	-3046
▁spar	-3047
▁wife	-3048
ethnic	-3049
herman	-3050
ically	-3051
niture	-3052
▁activ	-3053
▁blows	-3054
▁bowls	-3055
▁choir	-3056
▁embra	-3057
▁emerg	-3058
▁first	-3059
▁funny	-3060
▁grand	-3061
▁great	-3062
▁hotdo	-3063
▁lines	-3064
▁merch	-3065
▁newly	-3066
▁paras	-3067
▁pitch	-3068
▁rural	-3069
▁scuba	-3070
ference	-3071
▁Street	-3072
▁baller	-3073
▁boxing	-3074
▁crafts	-3075
▁defend	-3076
▁doctor	-3077
▁moment	-3078
▁pieces	-3079
▁protes	-3080
▁record	-3081
▁smokes	-3082
▁stares	-3083
▁vacuum	-3084
▁balance	-3085
▁carving	-3086
▁cricket	-3087
▁leading	-3088
▁medical	-3089
▁scenery	-3090
▁stripes	-3091
▁swimmer	-3092
▁tattoos	-3093
▁turning	-3094
▁coloring	-3095
▁flipping	-3096
▁grinding	-3097
▁spinning	-3098
▁apartment	-3099
▁crouching	-3100
▁firetruck	-3101
▁guitarist	-3102
▁uniformed	-3103
▁dreadlocks	-3104
▁inspecting	-3105
▁reflective	-3106
▁sleeveless	-3107
▁storefront	-3108
▁stretching	-3109
▁cheerleaders	-3110
int	-3111
ook	-3112
orm	-3113
reg	-3114
▁It	-3115
born	-3116
colo	-3117
eath	-3118
ians	-3119
ider	-3120
ilts	-3121
ites	-3122
izza	-3123
pers	-3124
▁Mar	-3125
▁Run	-3126
▁Spe	-3127
▁cop	-3128
▁dec	-3129
▁got	-3130
▁let	-3131
▁pri	-3132
▁reg	-3133
▁sco	-3134
asium	-3135
ctory	-3136
flops	-3137
iring	-3138
rents	-3139
tails	-3140
urope	-3141
▁bass	-3142
▁bund	-3143
▁calm	-3144
▁chee	-3145
▁comm	-3146
▁cong	-3147
▁corn	-3148
▁crew	-3149
▁cuts	-3150
▁dead	-3151
▁live	-3152
▁name	-3153
▁sofa	-3154
▁stom	-3155
▁tied	-3156
acting	-3157
▁Girls	-3158
▁angel	-3159
▁backs	-3160
▁chick	-3161
▁crane	-3162
▁derby	-3163
▁dimly	-3164
▁doors	-3165
▁explo	-3166
▁moped	-3167
▁rainy	-3168
▁reach	-3169
▁speed	-3170
tending	-3171
▁Middle	-3172
▁banner	-3173
▁batter	-3174
▁broken	-3175
▁comfor	-3176
▁compan	-3177
▁ethnic	-3178
▁finish	-3179
▁fluffy	-3180
▁member	-3181
▁raises	-3182
▁wheels	-3183
▁balding	-3184
▁candles	-3185
▁library	-3186
▁listens	-3187
▁objects	-3188
▁pigeons	-3189
▁similar	-3190
▁viewing	-3191
▁balances	-3192
▁birthday	-3193
▁demonstr	-3194
▁intently	-3195
▁material	-3196
▁spraying	-3197
▁stairway	-3198
▁unicycle	-3199
▁computers	-3200
▁following	-3201
▁furniture	-3202
▁greyhound	-3203
▁gymnasium	-3204
▁motorbike	-3205
▁nighttime	-3206
▁partially	-3207
▁conference	-3208
▁discussing	-3209
▁approaching	-3210
▁surrounding	-3211
da	-3212
ef	-3213
clo	-3214
cul	-3215
ict	-3216
iss	-3217
ues	-3218
▁Le	-3219
▁ic	-3220
dles	-3221
inis	-3222
orts	-3223
town	-3224
ways	-3225
▁bul	-3226
▁bun	-3227
▁fet	-3228
▁pop	-3229
▁sad	-3230
borne	-3231
ctors	-3232
eling	-3233
ivers	-3234
rucks	-3235
stone	-3236
urity	-3237
▁bino	-3238
▁clut	-3239
▁duck	-3240
▁hang	-3241
▁heav	-3242
▁hits	-3243
▁horn	-3244
▁lear	-3245
▁lick	-3246
▁more	-3247
▁mult	-3248
▁nets	-3249
▁pret	-3250
▁push	-3251
▁taxi	-3252
▁tick	-3253
▁weat	-3254
usting	-3255
▁While	-3256
▁carry	-3257
▁exper	-3258
▁hoops	-3259
▁organ	-3260
▁retur	-3261
▁share	-3262
▁space	-3263
▁spoon	-3264
▁style	-3265
▁turns	-3266
boarder	-3267
umerous	-3268
▁barber	-3269
▁branch	-3270
▁called	-3271
▁castle	-3272
▁groups	-3273
▁liquid	-3274
▁mobile	-3275
▁modern	-3276
▁paddle	-3277
▁papers	-3278
▁photos	-3279
▁plates	-3280
▁ribbon	-3281
▁shades	-3282
▁shaped	-3283
▁shaved	-3284
▁amongst	-3285
▁beneath	-3286
▁catcher	-3287
▁college	-3288
▁crosses	-3289
▁engaged	-3290
▁fireman	-3291
▁follows	-3292
▁forward	-3293
▁jewelry	-3294
▁rainbow	-3295
▁raising	-3296
▁shovels	-3297
▁smaller	-3298
▁stomach	-3299
▁theater	-3300
▁trailer	-3301
▁village	-3302
▁wrestle	-3303
▁elephant	-3304
▁flowered	-3305
▁lounging	-3306
▁necklace	-3307
▁official	-3308
▁security	-3309
▁starting	-3310
▁teammate	-3311
▁training	-3312
▁billboard	-3313
▁observing	-3314
▁directions	-3315
▁electronic	-3316
▁television	-3317
▁advertising	-3318
▁participate	-3319
no	-3320
hus	-3321
itt	-3322
min	-3323
sho	-3324
▁Sk	-3325
appy	-3326
avig	-3327
cade	-3328
coat	-3329
ello	-3330
eter	-3331
husi	-3332
ices	-3333
ilst	-3334
isle	-3335
late	-3336
lish	-3337
long	-3338
oned	-3339
ored	-3340
sely	-3341
ures	-3342
wood	-3343
▁Red	-3344
▁ang	-3345
▁gri	-3346
▁job	-3347
▁rem	-3348
▁sem	-3349
▁sne	-3350
▁tee	-3351
▁wig	-3352
aract	-3353
arves	-3354
ately	-3355
inger	-3356
itors	-3357
izing	-3358
ondon	-3359
▁City	-3360
▁Mult	-3361
▁cape	-3362
▁caps	-3363
▁cras	-3364
▁cray	-3365
▁cree	-3366
▁desc	-3367
▁fake	-3368
▁gift	-3369
▁gown	-3370
▁guns	-3371
▁inte	-3372
▁iron	-3373
▁mini	-3374
▁nail	-3375
▁poor	-3376
▁remo	-3377
▁seas	-3378
▁tech	-3379
▁upon	-3380
barrow	-3381
culars	-3382
sleeve	-3383
▁Cheer	-3384
▁aisle	-3385
▁apple	-3386
▁camel	-3387
▁chefs	-3388
▁dough	-3389
▁glove	-3390
▁leads	-3391
▁naked	-3392
▁press	-3393
▁quick	-3394
▁races	-3395
▁shops	-3396
▁silly	-3397
▁steel	-3398
▁tents	-3399
▁tight	-3400
▁trunk	-3401
colored	-3402
▁London	-3403
▁Soccer	-3404
▁biking	-3405
▁casual	-3406
▁donkey	-3407
▁employ	-3408
▁engine	-3409
▁houses	-3410
▁nature	-3411
▁scream	-3412
▁shakes	-3413
▁target	-3414
▁wading	-3415
▁whilst	-3416
▁bystand	-3417
▁cameras	-3418
▁charact	-3419
▁closeup	-3420
▁congreg	-3421
▁lifting	-3422
▁loading	-3423
▁newborn	-3424
▁peering	-3425
▁pottery	-3426
▁repairs	-3427
▁snowsho	-3428
▁terrain	-3429
▁weaving	-3430
▁Students	-3431
▁admiring	-3432
▁airborne	-3433
▁bleacher	-3434
▁downtown	-3435
▁machines	-3436
▁slightly	-3437
▁snowsuit	-3438
▁splashes	-3439
▁straight	-3440
▁tourists	-3441
▁tricycle	-3442
▁Caucasian	-3443
▁ballerina	-3444
▁fisherman	-3445
▁passenger	-3446
▁receiving	-3447
▁redheaded	-3448
▁sprinkler	-3449
▁binoculars	-3450
▁protesting	-3451
▁cobblestone	-3452
▁interacting	-3453
▁wheelbarrow	-3454
▁Cheerleaders	-3455
▁photographed	-3456
eu	-3457
gu	-3458
ky	-3459
xy	-3460
ze	-3461
▁'	-3462
aps	-3463
bby	-3464
box	-3465
can	-3466
dan	-3467
ded	-3468
ked	-3469
nam	-3470
ots	-3471
ude	-3472
urf	-3473
urs	-3474
vie	-3475
zen	-3476
▁Ad	-3477
▁He	-3478
▁Mc	-3479
▁aw	-3480
ared	-3481
bris	-3482
ific	-3483
izon	-3484
lley	-3485
mony	-3486
ocal	-3487
onal	-3488
shaw	-3489
tain	-3490
undy	-3491
view	-3492
▁Pla	-3493
▁Pol	-3494
▁bin	-3495
▁dot	-3496
▁hug	-3497
▁jet	-3498
▁may	-3499
▁mis	-3500
▁sol	-3501
▁sty	-3502
▁tex	-3503
▁tom	-3504
▁tor	-3505
▁ump	-3506
illed	-3507
iment	-3508
style	-3509
ually	-3510
ument	-3511
▁Amer	-3512
▁Tour	-3513
▁come	-3514
▁cups	-3515
▁dusk	-3516
▁eggs	-3517
▁lead	-3518
▁leot	-3519
▁loom	-3520
▁mitt	-3521
▁oven	-3522
▁rick	-3523
▁scru	-3524
orting	-3525
weight	-3526
▁bound	-3527
▁drill	-3528
▁flips	-3529
▁flute	-3530
▁messy	-3531
▁navig	-3532
▁order	-3533
▁patch	-3534
▁pizza	-3535
▁scout	-3536
▁sniff	-3537
▁tires	-3538
▁tower	-3539
▁wings	-3540
▁Europe	-3541
▁adjust	-3542
▁butter	-3543
▁checks	-3544
▁commun	-3545
▁debris	-3546
▁handle	-3547
▁instru	-3548
▁lounge	-3549
▁portra	-3550
▁pretty	-3551
▁social	-3552
▁barrier	-3553
▁coaster	-3554
▁contest	-3555
▁enthusi	-3556
▁express	-3557
▁factory	-3558
▁feather	-3559
▁landing	-3560
▁laptops	-3561
▁lecture	-3562
▁meeting	-3563
▁praying	-3564
▁sailing	-3565
▁shining	-3566
▁spotted	-3567
▁Multiple	-3568
▁breakdan	-3569
▁browsing	-3570
▁burgundy	-3571
▁ceremony	-3572
▁chainsaw	-3573
▁converse	-3574
▁customer	-3575
▁entering	-3576
▁examines	-3577
▁gestures	-3578
▁observes	-3579
▁overhead	-3580
▁rickshaw	-3581
▁sneakers	-3582
▁studying	-3583
▁swimmers	-3584
▁teaching	-3585
▁tropical	-3586
▁waterway	-3587
▁attention	-3588
▁bleachers	-3589
▁groceries	-3590
▁transport	-3591
▁consisting	-3592
▁waterfront	-3593
▁firefighters	-3594
gy	-3595
of	-3596
oh	-3597
py	-3598
arn	-3599
bal	-3600
ham	-3601
ils	-3602
kin	-3603
kis	-3604
lue	-3605
oga	-3606
quo	-3607
tub	-3608
ule	-3609
val	-3610
wor	-3611
▁To	-3612
▁if	-3613
▁ru	-3614
ably	-3615
anad	-3616
bies	-3617
cked	-3618
eled	-3619
fire	-3620
girl	-3621
hand	-3622
hill	-3623
ilot	-3624
leas	-3625
lies	-3626
mark	-3627
mboo	-3628
melo	-3629
rent	-3630
ults	-3631
umin	-3632
▁Com	-3633
▁Fem	-3634
▁adv	-3635
▁aim	-3636
▁awa	-3637
▁inj	-3638
▁lar	-3639
▁mow	-3640
▁occ	-3641
▁ord	-3642
▁pow	-3643
▁rel	-3644
▁sen	-3645
▁tug	-3646
arter	-3647
bbing	-3648
brush	-3649
imate	-3650
ities	-3651
oodle	-3652
robat	-3653
▁Bear	-3654
▁Boys	-3655
▁been	-3656
▁bite	-3657
▁blur	-3658
▁call	-3659
▁clad	-3660
▁draw	-3661
▁give	-3662
▁mass	-3663
▁recl	-3664
▁scra	-3665
▁seco	-3666
▁sele	-3667
▁semi	-3668
▁tape	-3669
▁teal	-3670
▁wrap	-3671
▁yoga	-3672
andise	-3673
compan	-3674
crosse	-3675
enting	-3676
ipping	-3677
ucking	-3678
▁attra	-3679
▁backd	-3680
▁banan	-3681
▁banjo	-3682
▁brief	-3683
▁carts	-3684
▁chess	-3685
▁colla	-3686
▁comes	-3687
▁craft	-3688
▁crown	-3689
▁desce	-3690
▁eight	-3691
▁games	-3692
▁hotel	-3693
▁juice	-3694
▁knees	-3695
▁knife	-3696
▁movie	-3697
▁purch	-3698
▁score	-3699
▁sides	-3700
▁sized	-3701
▁stops	-3702
▁wares	-3703
▁wires	-3704
▁world	-3705
▁attend	-3706
▁bamboo	-3707
▁beanie	-3708
▁bricks	-3709
▁kayaks	-3710
▁listen	-3711
▁places	-3712
▁sweeps	-3713
▁tackle	-3714
▁umpire	-3715
▁boulder	-3716
▁brother	-3717
▁chicken	-3718
▁exhibit	-3719
▁filling	-3720
▁firemen	-3721
▁handing	-3722
▁heading	-3723
▁horizon	-3724
▁paddles	-3725
▁pillows	-3726
▁science	-3727
▁shadows	-3728
▁strange	-3729
▁tossing	-3730
▁touches	-3731
▁tourist	-3732
▁trolley	-3733
▁vendors	-3734
▁wheelie	-3735
▁alleyway	-3736
▁applying	-3737
▁bagpipes	-3738
▁blankets	-3739
▁clapping	-3740
▁complete	-3741
▁exercise	-3742
▁forehead	-3743
▁inspects	-3744
▁lacrosse	-3745
▁monument	-3746
▁pigtails	-3747
▁scaffold	-3748
▁scooters	-3749
▁suitcase	-3750
▁visiting	-3751
▁wrestler	-3752
▁attending	-3753
▁beverages	-3754
▁emergency	-3755
▁headdress	-3756
▁paperwork	-3757
▁telephone	-3758
▁watermelo	-3759
▁bystanders	-3760
▁gymnastics	-3761
▁newspapers	-3762
▁overweight	-3763
▁performers	-3764
▁countryside	-3765
▁merchandise	-3766
fo	-3767
my	-3768
act	-3769
ama	-3770
bag	-3771
bed	-3772
con	-3773
cra	-3774
een	-3775
ees	-3776
hop	-3777
ker	-3778
rie	-3779
vil	-3780
▁Ph	-3781
▁av	-3782
▁ax	-3783
▁el	-3784
arts	-3785
bank	-3786
ened	-3787
iner	-3788
mmed	-3789
pids	-3790
zing	-3791
▁McD	-3792
▁Mex	-3793
▁acc	-3794
▁dad	-3795
▁fac	-3796
▁fit	-3797
▁fle	-3798
▁hom	-3799
▁hut	-3800
▁ill	-3801
▁imp	-3802
▁joy	-3803
▁jud	-3804
▁kno	-3805
▁mug	-3806
▁mur	-3807
▁pir	-3808
▁pun	-3809
▁rif	-3810
▁rod	-3811
▁saw	-3812
▁sep	-3813
▁sla	-3814
▁str	-3815
▁tea	-3816
▁tem	-3817
▁tux	-3818
▁val	-3819
anges	-3820
ersby	-3821
ising	-3822
ments	-3823
oping	-3824
romat	-3825
wheel	-3826
where	-3827
▁Play	-3828
▁Teen	-3829
▁ador	-3830
▁bank	-3831
▁bron	-3832
▁bush	-3833
▁cans	-3834
▁case	-3835
▁elev	-3836
▁flat	-3837
▁link	-3838
▁logs	-3839
▁masc	-3840
▁meas	-3841
▁rice	-3842
▁rust	-3843
▁skin	-3844
▁soap	-3845
▁soda	-3846
▁stir	-3847
▁tiny	-3848
▁tray	-3849
▁unus	-3850
▁wake	-3851
▁weap	-3852
▁whis	-3853
▁yarn	-3854
quoise	-3855
reline	-3856
▁China	-3857
▁assem	-3858
▁blind	-3859
▁cello	-3860
▁cheek	-3861
▁creek	-3862
▁diver	-3863
▁dives	-3864
▁dusty	-3865
▁falls	-3866
▁lifts	-3867
▁mower	-3868
▁noteb	-3869
▁opens	-3870
▁picks	-3871
▁power	-3872
▁range	-3873
▁salon	-3874
▁speak	-3875
▁still	-3876
▁touch	-3877
▁treat	-3878
itorium	-3879
resting	-3880
▁Female	-3881
▁Police	-3882
▁arcade	-3883
▁assist	-3884
▁ballet	-3885
▁belong	-3886
▁biting	-3887
▁contra	-3888
▁covers	-3889
▁farmer	-3890
▁floats	-3891
▁folded	-3892
▁handra	-3893
▁headed	-3894
▁inform	-3895
▁khakis	-3896
▁lanter	-3897
▁larger	-3898
▁lifted	-3899
▁medium	-3900
▁placed	-3901
▁pocket	-3902
▁potato	-3903
▁rapids	-3904
▁retrie	-3905
▁second	-3906
▁serves	-3907
▁skiers	-3908
▁thumbs	-3909
▁tights	-3910
▁tomato	-3911
American	-3912
▁McDonal	-3913
▁Runners	-3914
▁acrobat	-3915
▁camping	-3916
▁closely	-3917
▁constru	-3918
▁cowboys	-3919
▁crossed	-3920
▁descent	-3921
▁focused	-3922
▁gathers	-3923
▁highway	-3924
▁lighted	-3925
▁placing	-3926
▁process	-3927
▁puppies	-3928
▁quarter	-3929
▁skaters	-3930
▁surgery	-3931
▁visible	-3932
▁watched	-3933
▁weather	-3934
▁accompan	-3935
▁athletes	-3936
▁backdrop	-3937
▁chatting	-3938
▁homeless	-3939
▁involved	-3940
▁learning	-3941
▁location	-3942
▁multiple	-3943
▁planting	-3944
▁ponytail	-3945
▁sunlight	-3946
▁supplies	-3947
▁tackling	-3948
▁adjusting	-3949
▁carefully	-3950
▁christmas	-3951
▁formation	-3952
▁magazines	-3953
▁motorized	-3954
▁parachute	-3955
▁patterned	-3956
▁playfully	-3957
▁practices	-3958
▁repairing	-3959
▁screaming	-3960
▁shoreline	-3961
▁snowshoes	-3962
▁swimsuits	-3963
▁traveling	-3964
▁turquoise	-3965
▁underwear	-3966
▁auditorium	-3967
▁chalkboard	-3968
▁laundromat	-3969
▁reflection	-3970
▁suspenders	-3971
▁celebration	-3972
▁firefighter	-3973
▁motorcyclists	-3974
▁rollerblading	-3975
▁rollerskating	-3976
yd	-3977
ake	-3978
boy	-3979
era	-3980
ize	-3981
ney	-3982
ohn	-3983
ora	-3984
oth	-3985
ray	-3986
ula	-3987
vas	-3988
▁Ba	-3989
▁Be	-3990
▁El	-3991
▁Is	-3992
▁Sc	-3993
▁Sw	-3994
▁ge	-3995
▁my	-3996
▁ut	-3997
aint	-3998
amed	-3999
chan	-4000
enue	-4001
ftop	-4002
gers	-4003
icop	-4004
ikes	-4005
illy	-4006
lose	-4007
stro	-4008
▁Ped	-4009
▁Pro	-4010
▁Squ	-4011
▁est	-4012
▁fat	-4013
▁fed	-4014
▁hun	-4015
▁hyd	-4016
▁lip	-4017
▁rad	-4018
▁syn	-4019
▁tut	-4020
agull	-4021
aling	-4022
encil	-4023
lined	-4024
▁Asia	-4025
▁Band	-4026
▁Coup	-4027
▁buff	-4028
▁cage	-4029
▁cann	-4030
▁char	-4031
▁cute	-4032
▁done	-4033
▁even	-4034
▁gall	-4035
▁gaze	-4036
▁goat	-4037
▁hike	-4038
▁lean	-4039
▁lens	-4040
▁news	-4041
▁pill	-4042
▁pins	-4043
▁pots	-4044
▁rows	-4045
▁sque	-4046
▁than	-4047
▁unlo	-4048
▁vict	-4049
▁whom	-4050
▁will	-4051
ggings	-4052
igning	-4053
iously	-4054
loseup	-4055
orning	-4056
sticks	-4057
vering	-4058
▁Canad	-4059
▁Music	-4060
▁apart	-4061
▁belts	-4062
▁blood	-4063
▁cable	-4064
▁cards	-4065
▁cooks	-4066
▁furry	-4067
▁gazes	-4068
▁lobby	-4069
▁maneu	-4070
▁march	-4071
▁rally	-4072
▁serve	-4073
▁shape	-4074
▁stall	-4075
▁story	-4076
▁techn	-4077
▁tread	-4078
▁twirl	-4079
▁venue	-4080
estrian	-4081
icopter	-4082
tenance	-4083
▁Roller	-4084
▁Square	-4085
▁amidst	-4086
▁autumn	-4087
▁blazer	-4088
▁boards	-4089
▁candle	-4090
▁canvas	-4091
▁cheese	-4092
▁frozen	-4093
▁harves	-4094
▁hiding	-4095
▁hotdog	-4096
▁huddle	-4097
▁motion	-4098
▁patron	-4099
▁played	-4100
▁racers	-4101
▁single	-4102
▁skater	-4103
▁stilts	-4104
▁ticket	-4105
▁tribal	-4106
▁tripod	-4107
▁trucks	-4108
▁turned	-4109
▁upward	-4110
▁valley	-4111
▁walked	-4112
▁washer	-4113
▁washes	-4114
▁Bearded	-4115
▁Closeup	-4116
▁Elderly	-4117
▁artwork	-4118
▁bouquet	-4119
▁burning	-4120
▁butcher	-4121
▁butterf	-4122
▁cameram	-4123
▁couples	-4124
▁eastern	-4125
▁gallery	-4126
▁incline	-4127
▁injured	-4128
▁juggles	-4129
▁leotard	-4130
▁monitor	-4131
▁numbers	-4132
▁oranges	-4133
▁printed	-4134
▁quickly	-4135
▁rafting	-4136
▁rooftop	-4137
▁scarves	-4138
▁section	-4139
▁special	-4140
▁sprayed	-4141
▁workout	-4142
▁Olympics	-4143
▁activity	-4144
▁branches	-4145
▁casually	-4146
▁chopping	-4147
▁collared	-4148
▁creating	-4149
▁crouched	-4150
▁displays	-4151
▁driveway	-4152
▁facility	-4153
▁handrail	-4154
▁kayaking	-4155
▁leggings	-4156
▁lighting	-4157
▁portrait	-4158
▁products	-4159
▁roadside	-4160
▁shepherd	-4161
▁sideways	-4162
▁stepping	-4163
▁toddlers	-4164
▁trashcan	-4165
▁workshop	-4166
▁celebrate	-4167
▁earphones	-4168
▁embracing	-4169
▁finishing	-4170
▁highchair	-4171
▁interview	-4172
▁involving	-4173
▁passersby	-4174
▁Spectators	-4175
▁approaches	-4176
▁decorative	-4177
▁department	-4178
▁displaying	-4179
▁enthusiast	-4180
▁experiment	-4181
▁silhouette	-4182
▁Pedestrians	-4183
▁contraption	-4184
▁interesting	-4185
▁quarterback	-4186
▁transportation	-4187
po	-4188
alt	-4189
ata	-4190
bre	-4191
edo	-4192
hat	-4193
ief	-4194
opo	-4195
phy	-4196
pie	-4197
pit	-4198
ris	-4199
rit	-4200
tie	-4201
wls	-4202
ager	-4203
ague	-4204
aris	-4205
body	-4206
cake	-4207
entr	-4208
iage	-4209
imes	-4210
inet	-4211
most	-4212
noon	-4213
rant	-4214
ries	-4215
rous	-4216
stri	-4217
wear	-4218
▁Bic	-4219
▁Haw	-4220
▁Tex	-4221
▁cot	-4222
▁dol	-4223
▁dom	-4224
▁eas	-4225
▁gal	-4226
▁gla	-4227
▁hol	-4228
▁icy	-4229
▁maj	-4230
▁pay	-4231
▁sam	-4232
▁swe	-4233
▁sym	-4234
▁unf	-4235
▁unh	-4236
annel	-4237
antly	-4238
armon	-4239
ashes	-4240
atory	-4241
bbles	-4242
chron	-4243
count	-4244
craft	-4245
cular	-4246
herry	-4247
ifier	-4248
ikers	-4249
orted	-4250
right	-4251
vices	-4252
wning	-4253
▁Army	-4254
▁Baby	-4255
▁Blue	-4256
▁Lots	-4257
▁army	-4258
▁arri	-4259
▁chin	-4260
▁conf	-4261
▁dest	-4262
▁dive	-4263
▁fell	-4264
▁flam	-4265
▁fork	-4266
▁gest	-4267
▁here	-4268
▁hind	-4269
▁jogs	-4270
▁kilt	-4271
▁lass	-4272
▁late	-4273
▁menu	-4274
▁pads	-4275
▁pale	-4276
▁peer	-4277
▁sees	-4278
▁shel	-4279
▁tail	-4280
▁task	-4281
▁text	-4282
ailing	-4283
colate	-4284
coming	-4285
ensive	-4286
igious	-4287
lowing	-4288
nament	-4289
oodles	-4290
▁Eight	-4291
▁Photo	-4292
▁Skate	-4293
▁aband	-4294
▁bends	-4295
▁beret	-4296
▁brass	-4297
▁built	-4298
▁bulld	-4299
▁colum	-4300
▁ducks	-4301
▁estab	-4302
▁every	-4303
▁grabs	-4304
▁gradu	-4305
▁guide	-4306
▁hills	-4307
▁labor	-4308
▁mount	-4309
▁overs	-4310
▁pilot	-4311
▁point	-4312
▁quiet	-4313
▁recor	-4314
▁rifle	-4315
▁rings	-4316
▁shiny	-4317
▁smoot	-4318
▁spark	-4319
▁spect	-4320
▁squee	-4321
▁staff	-4322
▁stoop	-4323
▁stump	-4324
▁surfs	-4325
▁teens	-4326
▁tiled	-4327
▁tooth	-4328
▁torch	-4329
▁types	-4330
▁waist	-4331
ational	-4332
ination	-4333
leading	-4334
striped	-4335
umbling	-4336
vention	-4337
▁Adults	-4338
▁Couple	-4339
▁Hockey	-4340
▁Mohawk	-4341
▁School	-4342
▁almost	-4343
▁aprons	-4344
▁begins	-4345
▁booths	-4346
▁cherry	-4347
▁clouds	-4348
▁crates	-4349
▁fishes	-4350
▁gazing	-4351
▁harmon	-4352
▁images	-4353
▁indust	-4354
▁jumped	-4355
▁jumper	-4356
▁mechan	-4357
▁monkey	-4358
▁muzzle	-4359
▁pencil	-4360
▁pinata	-4361
▁really	-4362
▁sawing	-4363
▁scenic	-4364
▁scient	-4365
▁scouts	-4366
▁sunbat	-4367
▁trench	-4368
▁turban	-4369
▁unique	-4370
▁weight	-4371
▁writes	-4372
▁Smiling	-4373
▁adjusts	-4374
▁arrange	-4375
▁bathtub	-4376
▁bedroom	-4377
▁brushes	-4378
▁chinese	-4379
▁cleaner	-4380
▁designs	-4381
▁foliage	-4382
▁heavily	-4383
▁illumin	-4384
▁located	-4385
▁morning	-4386
▁painter	-4387
▁parents	-4388
▁pathway	-4389
▁pattern	-4390
▁peeking	-4391
▁pumpkin	-4392
▁seagull	-4393
▁sorting	-4394
▁stacked	-4395
▁strolls	-4396
▁tending	-4397
▁unhappy	-4398
▁Canadian	-4399
▁bouncing	-4400
▁checkers	-4401
▁circular	-4402
▁concentr	-4403
▁dragging	-4404
▁dumpster	-4405
▁grabbing	-4406
▁operates	-4407
▁raincoat	-4408
▁sniffing	-4409
▁sparring	-4410
▁synchron	-4411
▁waterski	-4412
▁afternoon	-4413
▁bicycling	-4414
▁butterfly	-4415
▁caucasian	-4416
▁chocolate	-4417
▁displayed	-4418
▁featuring	-4419
▁gesturing	-4420
▁recording	-4421
▁wakeboard	-4422
▁belongings	-4423
▁cellphones	-4424
▁chopsticks	-4425
▁containing	-4426
▁helicopter	-4427
▁presenting	-4428
▁decorations	-4429
▁parasailing	-4430
▁breakdancing	-4431
▁rollerblades	-4432
vi	-4433
den	-4434
net	-4435
oms	-4436
tor	-4437
war	-4438
zes	-4439
▁Am	-4440
▁NY	-4441
▁ox	-4442
▁py	-4443
▁wo	-4444
▁xy	-4445
ades	-4446
apes	-4447
ense	-4448
esma	-4449
iety	-4450
igan	-4451
iger	-4452
itiz	-4453
keys	-4454
mock	-4455
nequ	-4456
onge	-4457
ooks	-4458
rial	-4459
utes	-4460
▁ATM	-4461
▁Mem	-4462
▁Rod	-4463
▁Sub	-4464
▁bad	-4465
▁bit	-4466
▁ela	-4467
▁fer	-4468
▁had	-4469
▁hip	-4470
▁ing	-4471
▁kim	-4472
▁our	-4473
▁pon	-4474
▁sat	-4475
▁say	-4476
▁sle	-4477
▁too	-4478
aiian	-4479
apped	-4480
arium	-4481
beled	-4482
cause	-4483
cloth	-4484
emade	-4485
green	-4486
inder	-4487
itive	-4488
opoly	-4489
osaur	-4490
panic	-4491
paved	-4492
sized	-4493
sters	-4494
ution	-4495
▁Brit	-4496
▁Dogs	-4497
▁East	-4498
▁Elmo	-4499
▁Span	-4500
▁They	-4501
▁anti	-4502
▁aqua	-4503
▁asce	-4504
▁cash	-4505
▁chis	-4506
▁deli	-4507
▁disc	-4508
▁find	-4509
▁fort	-4510
▁grab	-4511
▁hook	-4512
▁jeep	-4513
▁lion	-4514
▁lips	-4515
▁much	-4516
▁prop	-4517
▁rabb	-4518
▁riot	-4519
▁skyd	-4520
▁spat	-4521
▁tags	-4522
▁tast	-4523
▁vibr	-4524
▁vint	-4525
▁ware	-4526
▁xylo	-4527
▁year	-4528
alling	-4529
arious	-4530
lights	-4531
stroke	-4532
tender	-4533
▁India	-4534
▁Texas	-4535
▁arrow	-4536
▁beads	-4537
▁canal	-4538
▁conne	-4539
▁cries	-4540
▁deser	-4541
▁diner	-4542
▁doesn	-4543
▁draws	-4544
▁easel	-4545
▁flash	-4546
▁human	-4547
▁ident	-4548
▁lasso	-4549
▁masks	-4550
▁midst	-4551
▁mixer	-4552
▁murky	-4553
▁notes	-4554
▁peers	-4555
▁plain	-4556
▁pours	-4557
▁punch	-4558
▁skies	-4559
▁skull	-4560
▁spins	-4561
▁stuck	-4562
▁tired	-4563
▁toile	-4564
▁upset	-4565
mercial	-4566
▁Asians	-4567
▁Mother	-4568
▁Native	-4569
▁Yellow	-4570
▁amount	-4571
▁babies	-4572
▁bundle	-4573
▁buried	-4574
▁cannon	-4575
▁canoes	-4576
▁clowns	-4577
▁draped	-4578
▁elabor	-4579
▁extend	-4580
▁histor	-4581
▁judges	-4582
▁kisses	-4583
▁lively	-4584
▁loaded	-4585
▁looked	-4586
▁marble	-4587
▁mohawk	-4588
▁nurses	-4589
▁packed	-4590
▁purses	-4591
▁scrubs	-4592
▁shaggy	-4593
▁shield	-4594
▁shower	-4595
▁skills	-4596
▁skinny	-4597
▁sprays	-4598
▁trains	-4599
▁treadm	-4600
▁turtle	-4601
▁waiter	-4602
alloween	-4603
fighters	-4604
lishment	-4605
▁America	-4606
▁Mexican	-4607
▁Olympic	-4608
▁Spanish	-4609
▁banners	-4610
▁because	-4611
▁carrier	-4612
▁chewing	-4613
▁classic	-4614
▁columns	-4615
▁company	-4616
▁complex	-4617
▁crayons	-4618
▁cycling	-4619
▁daytime	-4620
▁digital	-4621
▁earring	-4622
▁figures	-4623
▁filming	-4624
▁flannel	-4625
▁hammock	-4626
▁hydrant	-4627
▁labeled	-4628
▁mannequ	-4629
▁napping	-4630
▁package	-4631
▁product	-4632
▁protect	-4633
▁service	-4634
▁shirted	-4635
▁signing	-4636
▁speaker	-4637
▁support	-4638
▁tackled	-4639
▁unusual	-4640
▁vending	-4641
▁victory	-4642
▁vintage	-4643
▁Hawaiian	-4644
▁Shepherd	-4645
▁accident	-4646
▁aquarium	-4647
▁bridesma	-4648
▁campfire	-4649
▁communic	-4650
▁crashing	-4651
▁darkened	-4652
▁dinosaur	-4653
▁followed	-4654
▁forested	-4655
▁hardwood	-4656
▁homemade	-4657
▁notebook	-4658
▁numerous	-4659
▁sailboat	-4660
▁shoppers	-4661
▁silhouet	-4662
▁sledding	-4663
▁speeding	-4664
▁splashed	-4665
▁stocking	-4666
▁strapped	-4667
▁stringed	-4668
▁surgical	-4669
▁abandoned	-4670
▁bartender	-4671
▁cluttered	-4672
▁companion	-4673
▁conductor	-4674
▁directing	-4675
▁fountains	-4676
▁gardening	-4677
▁hammering	-4678
▁harmonica	-4679
▁navigates	-4680
▁projector	-4681
▁religious	-4682
▁spotlight	-4683
▁squeezing	-4684
▁stretches	-4685
▁strolling	-4686
▁teammates	-4687
▁tracksuit	-4688
▁warehouse	-4689
▁barefooted	-4690
▁commercial	-4691
▁industrial	-4692
▁laboratory	-4693
▁toothbrush	-4694
▁tournament	-4695
▁destination	-4696
▁maintenance	-4697
▁underground	-4698
▁waterskiing	-4699
▁Firefighters	-4700
▁Skateboarder	-4701
▁cheerleading	-4702
▁synchronized	-4703
▁establishment	-4704
Bo	-4705
eg	-4706
eo	-4707
ank	-4708
bur	-4709
cam	-4710
dri	-4711
iam	-4712
lim	-4713
ola	-4714
omo	-4715
opy	-4716
rab	-4717
rat	-4718
udd	-4719
ume	-4720
wed	-4721
yed	-4722
▁Pa	-4723
▁iP	-4724
▁id	-4725
▁ja	-4726
adow	-4727
bled	-4728
ells	-4729
enga	-4730
food	-4731
gger	-4732
icle	-4733
ided	-4734
ises	-4735
lent	-4736
nder	-4737
ngth	-4738
ongo	-4739
opes	-4740
pect	-4741
redi	-4742
seat	-4743
ters	-4744
uble	-4745
uzzy	-4746
▁Cla	-4747
▁Fis	-4748
▁Lat	-4749
▁Par	-4750
▁any	-4751
▁dam	-4752
▁fog	-4753
▁mes	-4754
▁min	-4755
▁mos	-4756
▁nun	-4757
▁oil	-4758
▁rav	-4759
▁sip	-4760
▁ske	-4761
▁tas	-4762
berry	-4763
cases	-4764
fetti	-4765
ieval	-4766
itten	-4767
lacks	-4768
lines	-4769
mming	-4770
oming	-4771
opard	-4772
ramid	-4773
riers	-4774
sping	-4775
tress	-4776
tting	-4777
tured	-4778
urfer	-4779
viron	-4780
works	-4781
▁Arab	-4782
▁Base	-4783
▁Cafe	-4784
▁Coca	-4785
▁Dark	-4786
▁Food	-4787
▁Guys	-4788
▁Seat	-4789
▁Soon	-4790
▁Star	-4791
▁Walm	-4792
▁aged	-4793
▁ages	-4794
▁bump	-4795
▁cave	-4796
▁chip	-4797
▁clar	-4798
▁cock	-4799
▁dess	-4800
▁file	-4801
▁fill	-4802
▁inst	-4803
▁laid	-4804
▁laun	-4805
▁lock	-4806
▁logo	-4807
▁lush	-4808
▁mail	-4809
▁pans	-4810
▁pops	-4811
▁sear	-4812
▁shar	-4813
▁skim	-4814
▁slic	-4815
▁tarp	-4816
▁tutu	-4817
▁wash	-4818
▁were	-4819
▁when	-4820
bbling	-4821
ements	-4822
endors	-4823
erness	-4824
friend	-4825
hedral	-4826
inting	-4827
leader	-4828
market	-4829
shaped	-4830
usband	-4831
▁Local	-4832
▁await	-4833
▁award	-4834
▁beers	-4835
▁begin	-4836
▁bongo	-4837
▁boxer	-4838
▁brace	-4839
▁broad	-4840
▁camps	-4841
▁cigar	-4842
▁citiz	-4843
▁crops	-4844
▁daily	-4845
▁desks	-4846
▁dolls	-4847
▁drawn	-4848
▁dryer	-4849
▁extre	-4850
▁fetch	-4851
▁flock	-4852
▁foggy	-4853
▁fuzzy	-4854
▁gallo	-4855
▁greet	-4856
▁holid	-4857
▁kimon	-4858
▁laden	-4859
▁level	-4860
▁marsh	-4861
▁maybe	-4862
▁named	-4863
▁peaks	-4864
▁rolls	-4865
▁seven	-4866
▁shack	-4867
▁shawl	-4868
▁shing	-4869
▁snork	-4870
▁sunsh	-4871
▁thick	-4872
▁tiger	-4873
▁visor	-4874
▁winds	-4875
▁wrist	-4876
country	-4877
mentary	-4878
▁Custom	-4879
▁Muslim	-4880
▁Worker	-4881
▁acting	-4882
▁attent	-4883
▁barely	-4884
▁battle	-4885
▁bounds	-4886
▁buffet	-4887
▁bulldo	-4888
▁camels	-4889
▁casino	-4890
▁chased	-4891
▁collie	-4892
▁column	-4893
▁cotton	-4894
▁crawls	-4895
▁create	-4896
▁divers	-4897
▁double	-4898
▁drying	-4899
▁fedora	-4900
▁fellow	-4901
▁fields	-4902
▁frying	-4903
▁grinds	-4904
▁guards	-4905
▁harbor	-4906
▁indian	-4907
▁league	-4908
▁lining	-4909
▁marked	-4910
▁marker	-4911
▁mascot	-4912
▁meadow	-4913
▁mouths	-4914
▁mowing	-4915
▁parent	-4916
▁picket	-4917
▁pirate	-4918
▁poodle	-4919
▁puppet	-4920
▁releas	-4921
▁resort	-4922
▁rustic	-4923
▁season	-4924
▁slacks	-4925
▁snacks	-4926
▁speeds	-4927
▁spring	-4928
▁squats	-4929
▁stance	-4930
▁stores	-4931
▁stripe	-4932
▁strugg	-4933
▁temple	-4934
▁termin	-4935
▁though	-4936
▁trophy	-4937
▁typing	-4938
▁videot	-4939
redients	-4940
▁British	-4941
▁Eastern	-4942
▁Members	-4943
▁Players	-4944
▁Walmart	-4945
▁adorned	-4946
▁artists	-4947
▁bananas	-4948
▁barbecu	-4949
▁barrels	-4950
▁beating	-4951
▁blurred	-4952
▁casting	-4953
▁environ	-4954
▁examine	-4955
▁exiting	-4956
▁farmers	-4957
▁hotdogs	-4958
▁kickbox	-4959
▁leopard	-4960
▁licking	-4961
▁mounted	-4962
▁muzzled	-4963
▁paralle	-4964
▁pointed	-4965
▁pyramid	-4966
▁seafood	-4967
▁seating	-4968
▁skyline	-4969
▁strings	-4970
▁topless	-4971
▁transit	-4972
▁travels	-4973
▁upwards	-4974
▁variety	-4975
▁vibrant	-4976
▁warming	-4977
▁wheeled	-4978
▁Baseball	-4979
▁Brunette	-4980
▁Numerous	-4981
▁Tourists	-4982
▁backseat	-4983
▁bodysuit	-4984
▁defender	-4985
▁designed	-4986
▁downhill	-4987
▁employee	-4988
▁lanterns	-4989
▁mattress	-4990
▁monitors	-4991
▁muscular	-4992
▁ordering	-4993
▁prepared	-4994
▁punching	-4995
▁purchase	-4996
▁railings	-4997
▁separate	-4998
▁starring	-4999
▁striking	-5000
▁trotting	-5001
▁woodland	-5002
▁Customers	-5003
▁Musicians	-5004
▁Rollerbla	-5005
▁acrobatic	-5006
▁cameraman	-5007
▁cathedral	-5008
▁character	-5009
▁condition	-5010
▁employees	-5011
▁measuring	-5012
▁miniature	-5013
▁necklaces	-5014
▁reception	-5015
▁scientist	-5016
▁sidelines	-5017
▁skydiving	-5018
▁somewhere	-5019
▁treadmill	-5020
▁vacuuming	-5021
▁wrestlers	-5022
▁xylophone	-5023
▁activities	-5024
▁attractive	-5025
▁characters	-5026
▁cigarettes	-5027
▁colorfully	-5028
▁completing	-5029
▁conducting	-5030
▁exercising	-5031
▁greyhounds	-5032
▁sculptures	-5033
▁snowboards	-5034
▁sunbathing	-5035
▁tablecloth	-5036
▁wilderness	-5037
▁cheerleader	-5038
▁environment	-5039
▁illuminated	-5040
▁ingredients	-5041
▁mountainous	-5042
▁silhouetted	-5043
▁supermarket	-5044
▁watermelons	-5045
▁crosscountry	-5046
▁rollerskates	-5047
▁demonstration	-5048
▁advertisements	-5049
",	-5050
SA	-5051
af	-5052
ls	-5053
mx	-5054
▁-	-5055
bie	-5056
car	-5057
cep	-5058
coh	-5059
eer	-5060
elf	-5061
ffe	-5062
gos	-5063
hoe	-5064
lor	-5065
now	-5066
oid	-5067
oma	-5068
ote	-5069
pid	-5070
por	-5071
rin	-5072
tur	-5073
uds	-5074
une	-5075
uss	-5076
vor	-5077
yon	-5078
zor	-5079
▁Ne	-5080
▁Ra	-5081
▁We	-5082
▁ol	-5083
▁su	-5084
▁ti	-5085
▁va	-5086
alks	-5087
ands	-5088
anse	-5089
atee	-5090
bour	-5091
cart	-5092
cept	-5093
cier	-5094
club	-5095
come	-5096
corn	-5097
eddy	-5098
flow	-5099
ford	-5100
held	-5101
hine	-5102
hole	-5103
iami	-5104
illa	-5105
ilor	-5106
iosk	-5107
ique	-5108
ised	-5109
ison	-5110
itch	-5111
ivil	-5112
ogie	-5113
oper	-5114
osed	-5115
otic	-5116
roud	-5117
stem	-5118
ston	-5119
sure	-5120
tely	-5121
unte	-5122
usky	-5123
vely	-5124
vern	-5125
yset	-5126
▁App	-5127
▁Bas	-5128
▁Bra	-5129
▁Car	-5130
▁Col	-5131
▁Cow	-5132
▁Dan	-5133
▁Ele	-5134
▁Gre	-5135
▁Mil	-5136
▁Ski	-5137
▁Ten	-5138
▁anc	-5139
▁bib	-5140
▁cru	-5141
▁cry	-5142
▁det	-5143
▁flu	-5144
▁hal	-5145
▁hid	-5146
▁inc	-5147
▁rag	-5148
▁ran	-5149
▁rip	-5150
▁tin	-5151
▁tip	-5152
▁ult	-5153
▁wip	-5154
▁zip	-5155
▁zom	-5156
angle	-5157
aping	-5158
bably	-5159
cakes	-5160
cohol	-5161
ddler	-5162
essor	-5163
ewish	-5164
ggers	-5165
gress	-5166
icans	-5167
iking	-5168
ished	-5169
lated	-5170
orous	-5171
piece	-5172
scent	-5173
storm	-5174
table	-5175
velin	-5176
wered	-5177
▁Colo	-5178
▁Dirt	-5179
▁Foot	-5180
▁Shop	-5181
▁Snow	-5182
▁bend	-5183
▁bord	-5184
▁bows	-5185
▁cats	-5186
▁clap	-5187
▁dots	-5188
▁drag	-5189
▁emer	-5190
▁haul	-5191
▁hour	-5192
▁hung	-5193
▁lime	-5194
▁magn	-5195
▁monk	-5196
▁mule	-5197
▁need	-5198
▁nude	-5199
▁puzz	-5200
▁quad	-5201
▁rack	-5202
▁resp	-5203
▁rugs	-5204
▁rush	-5205
▁saus	-5206
▁scat	-5207
▁slip	-5208
▁soup	-5209
▁spik	-5210
▁spin	-5211
▁stor	-5212
▁sund	-5213
▁test	-5214
▁ties	-5215
▁tips	-5216
▁wond	-5217
▁zone	-5218
antily	-5219
camera	-5220
cement	-5221
filled	-5222
guards	-5223
icking	-5224
ifying	-5225
issors	-5226
itical	-5227
minton	-5228
monial	-5229
nivers	-5230
rimmed	-5231
turned	-5232
ulting	-5233
vorite	-5234
▁Green	-5235
▁Legos	-5236
▁Miami	-5237
▁Shirt	-5238
▁State	-5239
▁Times	-5240
▁angle	-5241
▁anvil	-5242
▁badge	-5243
▁beams	-5244
▁belly	-5245
▁brind	-5246
▁bring	-5247
▁broch	-5248
▁carou	-5249
▁champ	-5250
▁civil	-5251
▁cocon	-5252
▁crash	-5253
▁crate	-5254
▁crest	-5255
▁cycle	-5256
▁disco	-5257
▁drain	-5258
▁eager	-5259
▁enclo	-5260
▁fixes	-5261
▁flood	-5262
▁focus	-5263
▁foods	-5264
▁gowns	-5265
▁grown	-5266
▁inner	-5267
▁kiosk	-5268
▁lands	-5269
▁lanes	-5270
▁lemon	-5271
▁licks	-5272
▁lives	-5273
▁lower	-5274
▁major	-5275
▁memor	-5276
▁merry	-5277
▁nails	-5278
▁noses	-5279
▁nurse	-5280
▁occup	-5281
▁occur	-5282
▁olive	-5283
▁ornam	-5284
▁pedal	-5285
▁piles	-5286
▁pipes	-5287
▁plank	-5288
▁plush	-5289
▁ponch	-5290
▁posed	-5291
▁proud	-5292
▁quest	-5293
▁radio	-5294
▁rafts	-5295
▁rails	-5296
▁raise	-5297
▁razor	-5298
▁recre	-5299
▁relay	-5300
▁rusty	-5301
▁scrat	-5302
▁sharp	-5303
▁skill	-5304
▁soars	-5305
▁sound	-5306
▁split	-5307
▁spots	-5308
▁squad	-5309
▁stars	-5310
▁subur	-5311
▁symbo	-5312
▁teddy	-5313
▁those	-5314
▁tubes	-5315
▁tying	-5316
▁vocal	-5317
▁weigh	-5318
▁words	-5319
▁woven	-5320
dressed	-5321
grapher	-5322
issance	-5323
testers	-5324
▁Bikers	-5325
▁Family	-5326
▁Father	-5327
▁Orange	-5328
▁Subway	-5329
▁aboard	-5330
▁advent	-5331
▁aiming	-5332
▁attack	-5333
▁barric	-5334
▁blower	-5335
▁boogie	-5336
▁bowtie	-5337
▁boxers	-5338
▁breast	-5339
▁breath	-5340
▁bronco	-5341
▁brooms	-5342
▁contem	-5343
▁conven	-5344
▁direct	-5345
▁dragon	-5346
▁facial	-5347
▁flames	-5348
▁floors	-5349
▁framed	-5350
▁french	-5351
▁goatee	-5352
▁grills	-5353
▁hambur	-5354
▁hearts	-5355
▁kicked	-5356
▁liquor	-5357
▁nearly	-5358
▁pigeon	-5359
▁pillar	-5360
▁pushed	-5361
▁raking	-5362
▁ravine	-5363
▁return	-5364
▁saddle	-5365
▁sailor	-5366
▁sample	-5367
▁seesaw	-5368
▁senior	-5369
▁series	-5370
▁slopes	-5371
▁strike	-5372
▁stunts	-5373
▁swords	-5374
▁system	-5375
▁talent	-5376
▁turkey	-5377
▁weapon	-5378
▁within	-5379
▁Sooners	-5380
▁Toddler	-5381
▁address	-5382
▁alcohol	-5383
▁ancient	-5384
▁bikinis	-5385
▁blindfo	-5386
▁bottoms	-5387
▁checked	-5388
▁clothed	-5389
▁cowgirl	-5390
▁creates	-5391
▁damaged	-5392
▁dessert	-5393
▁devices	-5394
▁doctors	-5395
▁expanse	-5396
▁flaming	-5397
▁flowery	-5398
▁glacier	-5399
▁handbag	-5400
▁hunched	-5401
▁husband	-5402
▁jockeys	-5403
▁missing	-5404
▁mittens	-5405
▁patrons	-5406
▁propped	-5407
▁raining	-5408
▁relaxes	-5409
▁ribbons	-5410
▁scaling	-5411
▁shorter	-5412
▁sleeves	-5413
▁spatula	-5414
▁submerg	-5415
▁texting	-5416
▁thought	-5417
▁written	-5418
▁European	-5419
▁Football	-5420
▁McDonald	-5421
▁Military	-5422
▁barriers	-5423
▁blocking	-5424
▁boarding	-5425
▁cardigan	-5426
▁climbers	-5427
▁confetti	-5428
▁crafting	-5429
▁deserted	-5430
▁dropping	-5431
▁elevated	-5432
▁favorite	-5433
▁features	-5434
▁finished	-5435
▁grasping	-5436
▁handheld	-5437
▁knitting	-5438
▁lipstick	-5439
▁medieval	-5440
▁newlywed	-5441
▁overlook	-5442
▁parallel	-5443
▁piercing	-5444
▁pitching	-5445
▁portable	-5446
▁presents	-5447
▁probably	-5448
▁progress	-5449
▁scissors	-5450
▁scooping	-5451
▁shouting	-5452
▁snowball	-5453
▁stirring	-5454
▁sundress	-5455
▁sunshine	-5456
▁tomatoes	-5457
▁ultimate	-5458
▁watering	-5459
▁Beautiful	-5460
▁assembled	-5461
▁assisting	-5462
▁badminton	-5463
▁briefcase	-5464
▁bulldozer	-5465
▁clutching	-5466
▁connected	-5467
▁elaborate	-5468
▁excitedly	-5469
▁fashioned	-5470
▁feathered	-5471
▁fireworks	-5472
▁jumpsuits	-5473
▁nightclub	-5474
▁personnel	-5475
▁policemen	-5476
▁political	-5477
▁professor	-5478
▁riverbank	-5479
▁scattered	-5480
▁stretched	-5481
▁strollers	-5482
▁unloading	-5483
▁waterside	-5484
▁Protesters	-5485
▁ceremonial	-5486
▁completely	-5487
▁congregate	-5488
▁expression	-5489
▁girlfriend	-5490
▁harvesting	-5491
▁sprinklers	-5492
▁accompanied	-5493
▁arrangement	-5494
▁bridesmaids	-5495
▁constructed	-5496
▁convenience	-5497
▁information	-5498
▁microscopes	-5499
▁mountaintop	-5500
▁socializing	-5501
▁wheelchairs	-5502
▁wineglasses	-5503
'.	-5504
ae	-5505
gn	-5506
oc	-5507
sw	-5508
uk	-5509
va	-5510
yo	-5511
zy	-5512
Bob	-5513
aco	-5514
aph	-5515
asm	-5516
cla	-5517
dog	-5518
dot	-5519
dra	-5520
ixt	-5521
kly	-5522
kno	-5523
lds	-5524
nal	-5525
ody	-5526
off	-5527
oke	-5528
orn	-5529
ota	-5530
pen	-5531
ppy	-5532
rer	-5533
rew	-5534
rid	-5535
the	-5536
thy	-5537
ued	-5538
ugs	-5539
▁Ex	-5540
▁Gr	-5541
▁La	-5542
▁Ob	-5543
▁Re	-5544
▁ec	-5545
▁em	-5546
▁gy	-5547
▁ni	-5548
▁ya	-5549
ader	-5550
agle	-5551
agne	-5552
aila	-5553
arat	-5554
atic	-5555
beat	-5556
bing	-5557
bout	-5558
cape	-5559
cast	-5560
ebra	-5561
engu	-5562
haps	-5563
helf	-5564
hift	-5565
high	-5566
hoop	-5567
iors	-5568
irts	-5569
ivan	-5570
iven	-5571
kery	-5572
kier	-5573
lled	-5574
oose	-5575
pain	-5576
rick	-5577
robe	-5578
tern	-5579
ties	-5580
toon	-5581
ware	-5582
well	-5583
zard	-5584
▁Art	-5585
▁Big	-5586
▁Cal	-5587
▁Dis	-5588
▁Hot	-5589
▁Min	-5590
▁Mon	-5591
▁Out	-5592
▁Pat	-5593
▁Per	-5594
▁Pic	-5595
▁Ste	-5596
▁ado	-5597
▁aid	-5598
▁axe	-5599
▁bmx	-5600
▁bon	-5601
▁cul	-5602
▁fam	-5603
▁gig	-5604
▁gum	-5605
▁jog	-5606
▁ket	-5607
▁lie	-5608
▁lon	-5609
▁nat	-5610
▁oar	-5611
▁pac	-5612
▁sew	-5613
▁sta	-5614
▁tam	-5615
▁tap	-5616
▁toe	-5617
▁unw	-5618
▁ver	-5619
▁vio	-5620
acock	-5621
aging	-5622
ances	-5623
anged	-5624
asing	-5625
boats	-5626
chief	-5627
dered	-5628
geons	-5629
icely	-5630
icker	-5631
ified	-5632
ilted	-5633
inoes	-5634
kings	-5635
known	-5636
lapid	-5637
ously	-5638
phalt	-5639
point	-5640
ronts	-5641
tical	-5642
umber	-5643
using	-5644
wling	-5645
▁Gray	-5646
▁High	-5647
▁Ital	-5648
▁Mark	-5649
▁Over	-5650
▁Sold	-5651
▁Swim	-5652
▁Wall	-5653
▁affe	-5654
▁amaz	-5655
▁answ	-5656
▁butt	-5657
▁chat	-5658
▁chem	-5659
▁cler	-5660
▁cows	-5661
▁deer	-5662
▁digs	-5663
▁film	-5664
▁flee	-5665
▁foam	-5666
▁fold	-5667
▁grow	-5668
▁harp	-5669
▁hear	-5670
▁iPod	-5671
▁keys	-5672
▁know	-5673
▁last	-5674
▁limb	-5675
▁lost	-5676
▁love	-5677
▁mats	-5678
▁mind	-5679
▁mops	-5680
▁peak	-5681
▁pedd	-5682
▁ping	-5683
▁plac	-5684
▁pray	-5685
▁prev	-5686
▁prov	-5687
▁punk	-5688
▁rake	-5689
▁rehe	-5690
▁rubs	-5691
▁seam	-5692
▁snap	-5693
▁solo	-5694
▁span	-5695
▁spir	-5696
▁swan	-5697
▁tear	-5698
▁turb	-5699
▁want	-5700
▁wool	-5701
aratus	-5702
capped	-5703
ctions	-5704
hammer	-5705
hermen	-5706
ooking	-5707
porary	-5708
rested	-5709
▁Amish	-5710
▁Apple	-5711
▁Athle	-5712
▁Claus	-5713
▁Colle	-5714
▁Color	-5715
▁Mouse	-5716
▁Rodeo	-5717
▁accep	-5718
▁angry	-5719
▁armed	-5720
▁armor	-5721
▁baked	-5722
▁baton	-5723
▁bites	-5724
▁bloss	-5725
▁bones	-5726
▁bunny	-5727
▁bushy	-5728
▁cabin	-5729
▁cargo	-5730
▁caric	-5731
▁carve	-5732
▁chips	-5733
▁chunk	-5734
▁clock	-5735
▁crazy	-5736
▁curve	-5737
▁delic	-5738
▁depic	-5739
▁deter	-5740
▁dolph	-5741
▁early	-5742
▁earth	-5743
▁elbow	-5744
▁fairy	-5745
▁fills	-5746
▁flour	-5747
▁found	-5748
▁given	-5749
▁goats	-5750
▁holes	-5751
▁husky	-5752
▁least	-5753
▁overh	-5754
▁parts	-5755
▁patri	-5756
▁pleas	-5757
▁posts	-5758
▁pride	-5759
▁robot	-5760
▁ruins	-5761
▁sacks	-5762
▁saris	-5763
▁shady	-5764
▁sheer	-5765
▁sling	-5766
▁snaps	-5767
▁spike	-5768
▁stain	-5769
▁storm	-5770
▁strap	-5771
▁strum	-5772
▁swamp	-5773
▁theme	-5774
▁tiara	-5775
▁toast	-5776
▁tongs	-5777
▁trays	-5778
▁tunic	-5779
▁upper	-5780
▁zebra	-5781
ailable	-5782
allenge	-5783
breaker	-5784
fashion	-5785
ingerie	-5786
inished	-5787
itement	-5788
ketball	-5789
ldering	-5790
omobile	-5791
ongeBob	-5792
onsored	-5793
ressive	-5794
rolling	-5795
skating	-5796
wheeler	-5797
working	-5798
▁Cowboy	-5799
▁Gentle	-5800
▁Groups	-5801
▁Surfer	-5802
▁Tennis	-5803
▁admire	-5804
▁appare	-5805
▁apples	-5806
▁arrive	-5807
▁bakery	-5808
▁banana	-5809
▁barren	-5810
▁batman	-5811
▁breaks	-5812
▁bronze	-5813
▁canopy	-5814
▁canyon	-5815
▁carved	-5816
▁cattle	-5817
▁cheeks	-5818
▁cinder	-5819
▁cloths	-5820
▁combat	-5821
▁cooler	-5822
▁crowds	-5823
▁crowns	-5824
▁curved	-5825
▁cutout	-5826
▁dotted	-5827
▁dramat	-5828
▁escape	-5829
▁footbr	-5830
▁glider	-5831
▁gloved	-5832
▁haired	-5833
▁handed	-5834
▁leaned	-5835
▁legged	-5836
▁length	-5837
▁letter	-5838
▁lovely	-5839
▁masked	-5840
▁master	-5841
▁mature	-5842
▁padded	-5843
▁passed	-5844
▁pauses	-5845
▁petals	-5846
▁pinned	-5847
▁poking	-5848
▁priest	-5849
▁remote	-5850
▁repres	-5851
▁rolled	-5852
▁rubble	-5853
▁saying	-5854
▁scales	-5855
▁sculpt	-5856
▁served	-5857
▁sheets	-5858
▁shines	-5859
▁sister	-5860
▁smooth	-5861
▁splash	-5862
▁stacks	-5863
▁starts	-5864
▁symbol	-5865
▁toilet	-5866
▁tossed	-5867
▁towels	-5868
▁tuxedo	-5869
▁wiping	-5870
▁Concert	-5871
▁Dancers	-5872
▁Parents	-5873
▁Seattle	-5874
▁Tourist	-5875
▁antique	-5876
▁applies	-5877
▁archway	-5878
▁asphalt	-5879
▁backhoe	-5880
▁backlit	-5881
▁barking	-5882
▁baseman	-5883
▁blocked	-5884
▁braided	-5885
▁brindle	-5886
▁bundled	-5887
▁capture	-5888
▁carried	-5889
▁chained	-5890
▁cockpit	-5891
▁cookies	-5892
▁coolers	-5893
▁cradles	-5894
▁curtain	-5895
▁directs	-5896
▁donkeys	-5897
▁dunking	-5898
▁eagerly	-5899
▁embrace	-5900
▁emerges	-5901
▁flowing	-5902
▁forming	-5903
▁gliding	-5904
▁handles	-5905
▁headset	-5906
▁herding	-5907
▁huddled	-5908
▁inspect	-5909
▁javelin	-5910
▁kimonos	-5911
▁leashes	-5912
▁lowered	-5913
▁marches	-5914
▁massive	-5915
▁message	-5916
▁mothers	-5917
▁mustard	-5918
▁passion	-5919
▁peacock	-5920
▁perched	-5921
▁poodles	-5922
▁popcorn	-5923
▁posters	-5924
▁pretend	-5925
▁returns	-5926
▁rowboat	-5927
▁shelves	-5928
▁singers	-5929
▁slicing	-5930
▁snorkel	-5931
▁snowman	-5932
▁stretch	-5933
▁stylish	-5934
▁surfers	-5935
▁tambour	-5936
▁tightro	-5937
▁torches	-5938
▁tugging	-5939
▁unident	-5940
▁unknown	-5941
▁upright	-5942
▁utility	-5943
▁varying	-5944
▁volunte	-5945
▁weapons	-5946
▁whistle	-5947
▁winding	-5948
▁workman	-5949
▁yelling	-5950
lapidated	-5951
niversity	-5952
▁Marathon	-5953
▁artistic	-5954
▁backward	-5955
▁balanced	-5956
▁bounding	-5957
▁campsite	-5958
▁carousel	-5959
▁checkout	-5960
▁citizens	-5961
▁clarinet	-5962
▁clearing	-5963
▁confused	-5964
▁contents	-5965
▁crawling	-5966
▁daylight	-5967
▁dribbles	-5968
▁drilling	-5969
▁earrings	-5970
▁exciting	-5971
▁feathers	-5972
▁fingerna	-5973
▁floaties	-5974
▁greenery	-5975
▁handling	-5976
▁heavyset	-5977
▁historic	-5978
▁includes	-5979
▁interact	-5980
▁lingerie	-5981
▁merchant	-5982
▁monopoly	-5983
▁offering	-5984
▁pacifier	-5985
▁partying	-5986
▁passerby	-5987
▁reclines	-5988
▁register	-5989
▁rounding	-5990
▁scantily	-5991
▁seagulls	-5992
▁shingles	-5993
▁suburban	-5994
▁sweaters	-5995
▁terminal	-5996
▁trimming	-5997
▁tumbling	-5998
▁vacation	-5999
▁vertical	-6000
▁vocalist	-6001
▁Americans	-6002
▁Bicyclist	-6003
▁Halloween	-6004
▁McDonalds	-6005
▁Shirtless	-6006
▁SpongeBob	-6007
▁apparatus	-6008
▁ascending	-6009
▁assistant	-6010
▁attendant	-6011
▁beginning	-6012
▁bookshelf	-6013
▁cartwheel	-6014
▁champagne	-6015
▁community	-6016
▁completed	-6017
▁contempla	-6018
▁elephants	-6019
▁exploring	-6020
▁fireplace	-6021
▁hairstyle	-6022
▁identical	-6023
▁makeshift	-6024
▁mannequin	-6025
▁operation	-6026
▁opponents	-6027
▁searching	-6028
▁shoeshine	-6029
▁struggles	-6030
▁suitcases	-6031
▁sweatsuit	-6032
▁Basketball	-6033
▁automobile	-6034
▁backstroke	-6035
▁barbecuing	-6036
▁caricature	-6037
▁collecting	-6038
▁comforting	-6039
▁conditions	-6040
▁convention	-6041
▁decorating	-6042
▁descending	-6043
▁equestrian	-6044
▁excitement	-6045
▁exhibition	-6046
▁eyeglasses	-6047
▁graffitied	-6048
▁installing	-6049
▁magnifying	-6050
▁motorbikes	-6051
▁multicolor	-6052
▁parachutes	-6053
▁pedestrian	-6054
▁pinstriped	-6055
▁positioned	-6056
▁possession	-6057
▁snowcapped	-6058
▁struggling	-6059
▁unfinished	-6060
▁vegetation	-6061
▁watercraft	-6062
▁watermelon	-6063
▁attentively	-6064
▁blindfolded	-6065
▁businessman	-6066
▁clothesline	-6067
▁competitive	-6068
▁competitors	-6069
▁expressions	-6070
▁instructing	-6071
▁interviewed	-6072
▁parachuting	-6073
▁storefronts	-6074
▁sweatshirts	-6075
▁windbreaker	-6076
▁Photographer	-6077
▁Rollerblades	-6078
▁concentrates	-6079
▁recreational	-6080
▁photographing	-6081
▁skateboarders	-6082
CE	-6083
MC	-6084
cs	-6085
ii	-6086
oy	-6087
sm	-6088
ta	-6089
uc	-6090
vy	-6091
wh	-6092
ye	-6093
Aid	-6094
acy	-6095
ari	-6096
azz	-6097
ben	-6098
bes	-6099
blo	-6100
die	-6101
eli	-6102
gee	-6103
ien	-6104
igs	-6105
kla	-6106
ksw	-6107
lem	-6108
lif	-6109
lls	-6110
nna	-6111
olf	-6112
oof	-6113
orc	-6114
ott	-6115
pro	-6116
sps	-6117
uce	-6118
uct	-6119
uge	-6120
una	-6121
ura	-6122
wom	-6123
xim	-6124
zil	-6125
▁En	-6126
▁Mr	-6127
▁No	-6128
▁Or	-6129
▁Wa	-6130
▁du	-6131
▁er	-6132
▁uk	-6133
▁zo	-6134
Cola	-6135
agen	-6136
ails	-6137
airs	-6138
aler	-6139
alth	-6140
amic	-6141
arer	-6142
arth	-6143
bles	-6144
care	-6145
coal	-6146
ctop	-6147
deep	-6148
dges	-6149
dish	-6150
edos	-6151
eere	-6152
egas	-6153
emet	-6154
eria	-6155
fort	-6156
gaph	-6157
hold	-6158
homa	-6159
idge	-6160
ifts	-6161
inas	-6162
iser	-6163
itan	-6164
iver	-6165
izes	-6166
keep	-6167
kely	-6168
kins	-6169
lift	-6170
lons	-6171
made	-6172
mage	-6173
maid	-6174
mely	-6175
mons	-6176
muff	-6177
neck	-6178
ogra	-6179
oles	-6180
omet	-6181
opsc	-6182
ores	-6183
orse	-6184
otch	-6185
phic	-6186
pite	-6187
pong	-6188
prin	-6189
rene	-6190
rica	-6191
rise	-6192
rong	-6193
seen	-6194
sion	-6195
sted	-6196
type	-6197
ubby	-6198
unds	-6199
vest	-6200
wdri	-6201
weed	-6202
yond	-6203
zens	-6204
▁All	-6205
▁Aut	-6206
▁Bur	-6207
▁Day	-6208
▁Eng	-6209
▁Gra	-6210
▁Har	-6211
▁His	-6212
▁Ice	-6213
▁Lou	-6214
▁Mot	-6215
▁Pit	-6216
▁Sun	-6217
▁Toy	-6218
▁Wal	-6219
▁Wet	-6220
▁You	-6221
▁amp	-6222
▁arr	-6223
▁ash	-6224
▁bor	-6225
▁bud	-6226
▁cou	-6227
▁cub	-6228
▁dip	-6229
▁div	-6230
▁dug	-6231
▁era	-6232
▁fru	-6233
▁gor	-6234
▁hon	-6235
▁jar	-6236
▁lid	-6237
▁lim	-6238
▁lla	-6239
▁mad	-6240
▁pom	-6241
▁rim	-6242
▁tet	-6243
▁via	-6244
▁vig	-6245
▁web	-6246
▁zoo	-6247
allic	-6248
amaha	-6249
andex	-6250
bench	-6251
berty	-6252
brero	-6253
bucks	-6254
cited	-6255
comot	-6256
drawn	-6257
enger	-6258
field	-6259
fives	-6260
front	-6261
glass	-6262
ickey	-6263
iller	-6264
imber	-6265
inary	-6266
ingly	-6267
inisk	-6268
ision	-6269
leton	-6270
lowly	-6271
mbone	-6272
muffs	-6273
ology	-6274
onies	-6275
otion	-6276
ropol	-6277
scope	-6278
store	-6279
ulele	-6280
verse	-6281
verty	-6282
white	-6283
▁Bike	-6284
▁Cars	-6285
▁Cast	-6286
▁Gard	-6287
▁Life	-6288
▁Long	-6289
▁Nike	-6290
▁Okla	-6291
▁Park	-6292
▁Race	-6293
▁Russ	-6294
▁Side	-6295
▁Walk	-6296
▁With	-6297
▁arid	-6298
▁bagg	-6299
▁bark	-6300
▁bats	-6301
▁beat	-6302
▁boss	-6303
▁bout	-6304
▁buoy	-6305
▁came	-6306
▁comb	-6307
▁cord	-6308
▁crab	-6309
▁crib	-6310
▁crus	-6311
▁crut	-6312
▁dash	-6313
▁disk	-6314
▁drop	-6315
▁dunk	-6316
▁dyed	-6317
▁east	-6318
▁else	-6319
▁evil	-6320
▁fine	-6321
▁flea	-6322
▁flex	-6323
▁hips	-6324
▁loud	-6325
▁mesh	-6326
▁milk	-6327
▁ming	-6328
▁mout	-6329
▁nine	-6330
▁note	-6331
▁once	-6332
▁oxen	-6333
▁pane	-6334
▁pant	-6335
▁paws	-6336
▁phys	-6337
▁poun	-6338
▁prim	-6339
▁prun	-6340
▁purs	-6341
▁real	-6342
▁rear	-6343
▁scri	-6344
▁shed	-6345
▁shru	-6346
▁slab	-6347
▁slam	-6348
▁slot	-6349
▁soil	-6350
▁sons	-6351
▁stay	-6352
▁sumo	-6353
▁sunb	-6354
▁tend	-6355
▁torn	-6356
▁tram	-6357
▁trou	-6358
▁used	-6359
▁vast	-6360
▁wand	-6361
▁ways	-6362
▁wigs	-6363
▁word	-6364
▁york	-6365
▁your	-6366
ancing	-6367
anding	-6368
anting	-6369
ashing	-6370
ashore	-6371
athers	-6372
ctopus	-6373
elcome	-6374
estern	-6375
esting	-6376
gyback	-6377
handed	-6378
ielder	-6379
itchen	-6380
ixture	-6381
lation	-6382
moting	-6383
ottish	-6384
pering	-6385
rently	-6386
ressed	-6387
riends	-6388
stance	-6389
trucks	-6390
ushing	-6391
▁About	-6392
▁Deere	-6393
▁Emerg	-6394
▁Grand	-6395
▁Happy	-6396
▁Hotel	-6397
▁Latin	-6398
▁Obama	-6399
▁Ocean	-6400
▁areas	-6401
▁avoid	-6402
▁buggy	-6403
▁buses	-6404
▁cafet	-6405
▁casts	-6406
▁cause	-6407
▁cemet	-6408
▁chews	-6409
▁clust	-6410
▁dolly	-6411
▁domin	-6412
▁drops	-6413
▁dunes	-6414
▁elder	-6415
▁exits	-6416
▁frown	-6417
▁gated	-6418
▁grima	-6419
▁grins	-6420
▁henna	-6421
▁hikes	-6422
▁hilly	-6423
▁hopsc	-6424
▁horns	-6425
▁kilts	-6426
▁kites	-6427
▁known	-6428
▁lakes	-6429
▁loose	-6430
▁mache	-6431
▁magic	-6432
▁mates	-6433
▁medit	-6434
▁metro	-6435
▁multi	-6436
▁owner	-6437
▁peach	-6438
▁peeks	-6439
▁pengu	-6440
▁piled	-6441
▁pokes	-6442
▁puffy	-6443
▁ramps	-6444
▁roses	-6445
▁salad	-6446
▁sales	-6447
▁scale	-6448
▁scoop	-6449
▁scrap	-6450
▁seeds	-6451
▁separ	-6452
▁shave	-6453
▁sight	-6454
▁snake	-6455
▁snowf	-6456
▁sorts	-6457
▁spear	-6458
▁squat	-6459
▁steam	-6460
▁steer	-6461
▁stirs	-6462
▁strip	-6463
▁taste	-6464
▁texts	-6465
▁these	-6466
▁think	-6467
▁topic	-6468
▁tribe	-6469
▁trims	-6470
▁uncom	-6471
▁unwra	-6472
▁utens	-6473
▁wades	-6474
▁weave	-6475
▁weeds	-6476
▁weird	-6477
▁whole	-6478
▁wipes	-6479
▁wraps	-6480
▁write	-6481
aration	-6482
flowers	-6483
gaphone	-6484
ificial	-6485
kswagen	-6486
orously	-6487
packing	-6488
shirted	-6489
strated	-6490
uddling	-6491
ughters	-6492
viewing	-6493
wearing	-6494
▁Arabic	-6495
▁Boston	-6496
▁Brazil	-6497
▁Crowds	-6498
▁Disney	-6499
▁During	-6500
▁Island	-6501
▁Market	-6502
▁Mickey	-6503
▁Motorc	-6504
▁Parade	-6505
▁Singer	-6506
▁Speedo	-6507
▁Sports	-6508
▁Yamaha	-6509
▁actors	-6510
▁asking	-6511
▁assemb	-6512
▁beards	-6513
▁bearer	-6514
▁beyond	-6515
▁bounce	-6516
▁bowler	-6517
▁bridal	-6518
▁bungee	-6519
▁cables	-6520
▁camper	-6521
▁chubby	-6522
▁circus	-6523
▁closer	-6524
▁cooked	-6525
▁cookie	-6526
▁crayon	-6527
▁cruise	-6528
▁decide	-6529
▁eatery	-6530
▁engage	-6531
▁except	-6532
▁firing	-6533
▁floppy	-6534
▁fluore	-6535
▁forces	-6536
▁formed	-6537
▁fourth	-6538
▁frames	-6539
▁frolic	-6540
▁ginger	-6541
▁govern	-6542
▁grooms	-6543
▁halter	-6544
▁helped	-6545
▁hidden	-6546
▁inline	-6547
▁kettle	-6548
▁kiddie	-6549
▁kitten	-6550
▁landed	-6551
▁layers	-6552
▁lemons	-6553
▁likely	-6554
▁litter	-6555
▁lonely	-6556
▁minisk	-6557
▁nicely	-6558
▁notice	-6559
▁opened	-6560
▁orders	-6561
▁owners	-6562
▁partly	-6563
▁pickup	-6564
▁poised	-6565
▁polish	-6566
▁postal	-6567
▁potted	-6568
▁powder	-6569
▁prints	-6570
▁prizes	-6571
▁pulley	-6572
▁puzzle	-6573
▁quaint	-6574
▁rabbit	-6575
▁rehear	-6576
▁retail	-6577
▁roping	-6578
▁rounds	-6579
▁runway	-6580
▁sandal	-6581
▁sashes	-6582
▁satche	-6583
▁scared	-6584
▁shapes	-6585
▁shoots	-6586
▁siding	-6587
▁siting	-6588
▁skimpy	-6589
▁slices	-6590
▁sniffs	-6591
▁snowmo	-6592
▁spiked	-6593
▁spikes	-6594
▁stalks	-6595
▁steaks	-6596
▁steers	-6597
▁stools	-6598
▁straps	-6599
▁stride	-6600
▁sunhat	-6601
▁swampy	-6602
▁sweaty	-6603
▁tagged	-6604
▁taller	-6605
▁taught	-6606
▁thread	-6607
▁tosses	-6608
▁troops	-6609
▁tuning	-6610
▁unseen	-6611
▁viewer	-6612
▁waring	-6613
▁washed	-6614
▁wicker	-6615
▁youths	-6616
vertible	-6617
▁College	-6618
▁Friends	-6619
▁Looking	-6620
▁Picture	-6621
▁Station	-6622
▁Teenage	-6623
▁adolesc	-6624
▁apparel	-6625
▁archite	-6626
▁banging	-6627
▁begging	-6628
▁besides	-6629
▁bookbag	-6630
▁burgers	-6631
▁calling	-6632
▁campers	-6633
▁cartoon	-6634
▁caution	-6635
▁circuit	-6636
▁cleaned	-6637
▁created	-6638
▁cubicle	-6639
▁cupcake	-6640
▁curious	-6641
▁descend	-6642
▁despite	-6643
▁dolphin	-6644
▁drivers	-6645
▁dropped	-6646
▁exposed	-6647
▁fighter	-6648
▁flatbed	-6649
▁freshly	-6650
▁handleb	-6651
▁hauling	-6652
▁holiday	-6653
▁hooping	-6654
▁intense	-6655
▁keeping	-6656
▁ladders	-6657
▁lantern	-6658
▁letters	-6659
▁locomot	-6660
▁mailbox	-6661
▁mascara	-6662
▁mermaid	-6663
▁minivan	-6664
▁muzzles	-6665
▁octopus	-6666
▁packing	-6667
▁padding	-6668
▁pancake	-6669
▁parasol	-6670
▁peeling	-6671
▁perhaps	-6672
▁persons	-6673
▁pillars	-6674
▁pirates	-6675
▁playpen	-6676
▁plowing	-6677
▁poverty	-6678
▁rabbits	-6679
▁receive	-6680
▁reddish	-6681
▁ridding	-6682
▁roadway	-6683
▁rocking	-6684
▁seaweed	-6685
▁seniors	-6686
▁session	-6687
▁shields	-6688
▁slender	-6689
▁sloping	-6690
▁snowing	-6691
▁spandex	-6692
▁spanish	-6693
▁squares	-6694
▁statues	-6695
▁storage	-6696
▁strikes	-6697
▁studies	-6698
▁sucking	-6699
▁sunrise	-6700
▁tackles	-6701
▁tasting	-6702
▁terrace	-6703
▁terrier	-6704
▁tightly	-6705
▁trained	-6706
▁typical	-6707
▁ukulele	-6708
▁unpaved	-6709
▁walkers	-6710
▁warning	-6711
▁wheeler	-6712
▁winning	-6713
ashington	-6714
fashioned	-6715
forcement	-6716
itchenAid	-6717
▁Cyclists	-6718
▁Hispanic	-6719
▁Individu	-6720
▁Oklahoma	-6721
▁Oriental	-6722
▁Shoppers	-6723
▁Somebody	-6724
▁actively	-6725
▁adorable	-6726
▁aircraft	-6727
▁basement	-6728
▁bathrobe	-6729
▁boulders	-6730
▁bracelet	-6731
▁breaking	-6732
▁bringing	-6733
▁brochure	-6734
▁carpeted	-6735
▁cemetery	-6736
▁charcoal	-6737
▁chickens	-6738
▁coconuts	-6739
▁competes	-6740
▁controls	-6741
▁countert	-6742
▁crutches	-6743
▁cupcakes	-6744
▁designer	-6745
▁directly	-6746
▁dominoes	-6747
▁drainage	-6748
▁earmuffs	-6749
▁emerging	-6750
▁extended	-6751
▁fetching	-6752
▁greeting	-6753
▁guarding	-6754
▁helmeted	-6755
▁hispanic	-6756
▁incoming	-6757
▁inflated	-6758
▁jewelery	-6759
▁kayakers	-6760
▁leafless	-6761
▁markings	-6762
▁mechanic	-6763
▁memorial	-6764
▁metallic	-6765
▁metropol	-6766
▁occupied	-6767
▁operated	-6768
▁overcoat	-6769
▁overhang	-6770
▁pastries	-6771
▁pictured	-6772
▁pitchers	-6773
▁plucking	-6774
▁pressure	-6775
▁question	-6776
▁readying	-6777
▁receives	-6778
▁removing	-6779
▁roadwork	-6780
▁sausages	-6781
▁screwdri	-6782
▁sculptor	-6783
▁seashore	-6784
▁skeleton	-6785
▁solitary	-6786
▁sombrero	-6787
▁someones	-6788
▁spectate	-6789
▁stacking	-6790
▁superman	-6791
▁surgeons	-6792
▁swimwear	-6793
▁tattered	-6794
▁thinking	-6795
▁triangle	-6796
▁trombone	-6797
▁twirling	-6798
▁waitress	-6799
▁weighing	-6800
▁wetsuits	-6801
▁Emergency	-6802
▁Gentleman	-6803
▁Greyhound	-6804
▁Starbucks	-6805
▁accepting	-6806
▁appearing	-6807
▁available	-6808
▁balconies	-6809
▁bookstore	-6810
▁cafeteria	-6811
▁chiseling	-6812
▁cityscape	-6813
▁coveralls	-6814
▁currently	-6815
▁daughters	-6816
▁defenders	-6817
▁defensive	-6818
▁delicious	-6819
▁dribbling	-6820
▁extremely	-6821
▁galloping	-6822
▁gymnastic	-6823
▁headbands	-6824
▁hopscotch	-6825
▁megaphone	-6826
▁messenger	-6827
▁motorboat	-6828
▁observers	-6829
▁occurring	-6830
▁oversized	-6831
▁paintball	-6832
▁paintings	-6833
▁piggyback	-6834
▁projected	-6835
▁promoting	-6836
▁returning	-6837
▁sailboats	-6838
▁sculpting	-6839
▁selecting	-6840
▁smoothing	-6841
▁soldering	-6842
▁sponsored	-6843
▁sprinting	-6844
▁stairwell	-6845
▁stockings	-6846
▁submerged	-6847
▁substance	-6848
▁technique	-6849
▁tightrope	-6850
▁unpacking	-6851
▁weathered	-6852
▁workbench	-6853
▁Bicyclists	-6854
▁Elementary	-6855
▁artificial	-6856
▁attraction	-6857
▁celebrates	-6858
▁collection	-6859
▁footbridge	-6860
▁foundation	-6861
▁frustrated	-6862
▁graduation	-6863
▁guitarists	-6864
▁impressive	-6865
▁instructor	-6866
▁kickboxing	-6867
▁mechanical	-6868
▁organizing	-6869
▁overturned	-6870
▁paintbrush	-6871
▁pretending	-6872
▁purchasing	-6873
▁retrieving	-6874
▁scratching	-6875
▁stationary	-6876
▁strawberry	-6877
▁structures	-6878
▁sunbathers	-6879
▁technology	-6880
▁waterskier	-6881
▁whispering	-6882
▁basketballs	-6883
▁comfortable	-6884
▁convertible	-6885
▁dilapidated	-6886
▁electronics	-6887
▁entertainer	-6888
▁fashionable	-6889
▁fluorescent	-6890
▁headscarves	-6891
▁photography	-6892
▁preparation	-6893
▁streetlight	-6894
▁videotaping	-6895
▁constructing	-6896
▁dramatically	-6897
▁mountainside	-6898
▁participates	-6899
▁passionately	-6900
▁snowboarders	-6901
▁surroundings	-6902
▁unidentified	-6903
▁Photographers	-6904
▁communicating	-6905
▁contemplating	-6906
▁demonstrating	-6907
▁photographers	-6908
▁professionals	-6909
▁rollerskaters	-6910
AT	-6911
EL	-6912
GO	-6913
IN	-6914
MA	-6915
ON	-6916
ax	-6917
ba	-6918
ci	-6919
fl	-6920
oe	-6921
ux	-6922
yl	-6923
The	-6924
aic	-6925
ams	-6926
att	-6927
cro	-6928
dex	-6929
ena	-6930
erl	-6931
ged	-6932
gin	-6933
hel	-6934
hen	-6935
ico	-6936
ili	-6937
inj	-6938
ism	-6939
jab	-6940
lam	-6941
lan	-6942
mut	-6943
nce	-6944
nes	-6945
nia	-6946
omb	-6947
oos	-6948
pad	-6949
psy	-6950
rep	-6951
rot	-6952
sem	-6953
ski	-6954
son	-6955
ssy	-6956
sta	-6957
tch	-6958
uis	-6959
uma	-6960
unt	-6961
ups	-6962
ury	-6963
vin	-6964
was	-6965
ymn	-6966
▁Cl	-6967
▁De	-6968
▁ab	-6969
▁dw	-6970
▁eg	-6971
▁ir	-6972
▁tv	-6973
abil	-6974
acco	-6975
achi	-6976
aign	-6977
ains	-6978
amar	-6979
anda	-6980
andy	-6981
ason	-6982
atch	-6983
ault	-6984
bags	-6985
blue	-6986
book	-6987
circ	-6988
cker	-6989
clad	-6990
ctic	-6991
dyed	-6992
ecut	-6993
edan	-6994
etho	-6995
ffle	-6996
foam	-6997
gels	-6998
gent	-6999
rd	-7000
cod	-7001
ero	-7002
ove	-7003
▁Go	-7004
acas	-7005
gear	-7006
gles	-7007
hats	-7008
here	-7009
icef	-7010
ifor	-7011
iled	-7012
ints	-7013
ipop	-7014
isha	-7015
jump	-7016
llie	-7017
lope	-7018
nets	-7019
olog	-7020
omas	-7021
pany	-7022
pass	-7023
rain	-7024
reds	-7025
rimp	-7026
rior	-7027
shes	-7028
ship	-7029
shot	-7030
stal	-7031
step	-7032
teen	-7033
tock	-7034
ugby	-7035
uild	-7036
uing	-7037
uler	-7038
umes	-7039
urai	-7040
writ	-7041
yclo	-7042
▁Air	-7043
▁Ala	-7044
▁Bat	-7045
▁Bus	-7046
▁Cap	-7047
▁Emp	-7048
▁Eth	-7049
▁Far	-7050
▁Few	-7051
▁Fla	-7052
▁Mad	-7053
▁Med	-7054
▁Mom	-7055
▁Nin	-7056
▁Not	-7057
▁Ori	-7058
▁San	-7059
▁Sco	-7060
▁Sea	-7061
▁Sit	-7062
▁Ter	-7063
▁Tye	-7064
▁Wii	-7065
▁Wor	-7066
▁age	-7067
▁ank	-7068
▁ann	-7069
▁awe	-7070
▁awn	-7071
▁bay	-7072
▁cer	-7073
▁doc	-7074
▁fal	-7075
▁ful	-7076
▁gay	-7077
▁ink	-7078
▁iro	-7079
▁jug	-7080
▁lat	-7081
▁led	-7082
▁lin	-7083
▁mac	-7084
▁mob	-7085
▁now	-7086
▁paw	-7087
▁pel	-7088
▁pep	-7089
▁plu	-7090
▁rig	-7091
▁rit	-7092
▁rot	-7093
▁saf	-7094
▁swo	-7095
▁tob	-7096
▁tul	-7097
▁tum	-7098
▁unc	-7099
aki	-7100
hio	-7101
iod	-7102
▁2.	-7103
▁DS	-7104
▁Ev	-7105
▁Ri	-7106
aced	-7107
bell	-7108
buds	-7109
eran	-7110
fast	-7111
ioed	-7112
ived	-7113
izer	-7114
▁BMW	-7115
▁Dad	-7116
▁Dep	-7117
▁Gap	-7118
▁Pan	-7119
▁alp	-7120
▁ast	-7121
▁bee	-7122
▁boa	-7123
▁lei	-7124
▁pud	-7125
▁ups	-7126
▁wit	-7127
▁yet	-7128
Pants	-7129
achsh	-7130
agers	-7131
allet	-7132
almon	-7133
ampoo	-7134
andel	-7135
andom	-7136
apple	-7137
atown	-7138
cards	-7139
ckled	-7140
climb	-7141
ctang	-7142
cured	-7143
doors	-7144
ember	-7145
erees	-7146
erlin	-7147
geous	-7148
gling	-7149
gnant	-7150
guing	-7151
hoops	-7152
hroom	-7153
iachi	-7154
iator	-7155
icles	-7156
iders	-7157
ilies	-7158
iskly	-7159
itude	-7160
laden	-7161
lease	-7162
lings	-7163
looks	-7164
ockey	-7165
olate	-7166
orean	-7167
oring	-7168
orter	-7169
ortun	-7170
press	-7171
proof	-7172
quely	-7173
rical	-7174
ridor	-7175
rised	-7176
shing	-7177
smith	-7178
sting	-7179
tendo	-7180
tling	-7181
uffel	-7182
ummer	-7183
unges	-7184
urely	-7185
utist	-7186
water	-7187
welve	-7188
woman	-7189
▁Budd	-7190
▁Bull	-7191
▁Camp	-7192
▁Care	-7193
▁Cent	-7194
▁Chef	-7195
▁Cola	-7196
▁Crou	-7197
▁Deli	-7198
▁Down	-7199
rad	-7200
▁Farm	-7201
▁Fast	-7202
▁Ford	-7203
▁Fore	-7204
▁Good	-7205
▁Gymn	-7206
▁Hard	-7207
▁Holl	-7208
▁Home	-7209
▁Lead	-7210
▁Lone	-7211
▁Main	-7212
▁Mets	-7213
▁Nine	-7214
▁Pops	-7215
▁Rena	-7216
▁Road	-7217
▁Team	-7218
▁bead	-7219
▁best	-7220
▁bunk	-7221
▁cact	-7222
▁capt	-7223
▁cent	-7224
▁cert	-7225
▁chew	-7226
▁claw	-7227
▁clip	-7228
▁coin	-7229
▁cors	-7230
▁coun	-7231
▁cult	-7232
▁cush	-7233
▁cust	-7234
▁dalm	-7235
▁dent	-7236
▁diag	-7237
▁dojo	-7238
▁dorm	-7239
▁dren	-7240
▁ecst	-7241
▁ends	-7242
▁exit	-7243
▁feed	-7244
▁fier	-7245
▁fist	-7246
▁flot	-7247
▁fris	-7248
▁glit	-7249
▁glow	-7250
▁goof	-7251
▁grid	-7252
▁hate	-7253
▁hawk	-7254
▁huts	-7255
▁inse	-7256
▁jars	-7257
▁jazz	-7258
▁junk	-7259
▁leis	-7260
▁limo	-7261
▁loaf	-7262
▁loll	-7263
▁loop	-7264
▁mate	-7265
▁mist	-7266
▁mock	-7267
▁moon	-7268
▁neat	-7269
▁ninj	-7270
▁obsc	-7271
▁opin	-7272
▁pace	-7273
▁pear	-7274
▁pets	-7275
▁plow	-7276
▁proc	-7277
▁rapp	-7278
▁rena	-7279
▁resc	-7280
▁ripp	-7281
▁rise	-7282
▁rods	-7283
▁rose	-7284
▁safe	-7285
▁sari	-7286
▁save	-7287
▁self	-7288
▁sexy	-7289
▁shit	-7290
▁sips	-7291
▁situ	-7292
▁sket	-7293
▁smir	-7294
▁snar	-7295
▁sock	-7296
▁soon	-7297
▁spec	-7298
▁spre	-7299
▁styl	-7300
▁such	-7301
▁suds	-7302
▁susp	-7303
▁swer	-7304
▁toen	-7305
▁took	-7306
▁trap	-7307
▁trek	-7308
▁trio	-7309
▁tuba	-7310
▁twil	-7311
▁urin	-7312
▁veil	-7313
▁vers	-7314
▁vine	-7315
▁wade	-7316
acular	-7317
aeolog	-7318
aining	-7319
alleng	-7320
aneous	-7321
anitor	-7322
antage	-7323
araoke	-7324
codile	-7325
corder	-7326
earing	-7327
ertips	-7328
estyle	-7329
eteran	-7330
headed	-7331
iction	-7332
iments	-7333
irline	-7334
ishing	-7335
isters	-7336
keeper	-7337
lagers	-7338
locked	-7339
lywood	-7340
mother	-7341
namese	-7342
onding	-7343
ournal	-7344
pleted	-7345
prints	-7346
ration	-7347
rofoam	-7348
rolled	-7349
ronaut	-7350
screen	-7351
stairs	-7352
stress	-7353
uffles	-7354
ulance	-7355
uminum	-7356
verage	-7357
vestig	-7358
washer	-7359
▁Coney	-7360
▁Elder	-7361
▁Looks	-7362
▁Pizza	-7363
▁Rugby	-7364
▁Skier	-7365
▁South	-7366
▁Spain	-7367
▁align	-7368
▁alike	-7369
▁appla	-7370
▁appre	-7371
▁audio	-7372
▁beans	-7373
▁bears	-7374
▁beats	-7375
▁blade	-7376
▁blast	-7377
▁blown	-7378
▁bowed	-7379
▁bulls	-7380
▁cages	-7381
▁cakes	-7382
▁canes	-7383
▁capes	-7384
▁chart	-7385
▁clams	-7386
▁clerk	-7387
▁colon	-7388
▁cords	-7389
▁darts	-7390
▁ditch	-7391
▁dozen	-7392
▁dried	-7393
▁dries	-7394
▁drunk	-7395
▁dumps	-7396
▁dunks	-7397
▁enter	-7398
▁excav	-7399
▁expla	-7400
▁extra	-7401
▁fatig	-7402
▁feeds	-7403
▁ferry	-7404
▁figur	-7405
▁films	-7406
▁final	-7407
▁fists	-7408
▁force	-7409
▁fully	-7410
▁geese	-7411
▁gifts	-7412
▁goers	-7413
▁guest	-7414
▁gypsy	-7415
▁hedge	-7416
▁hijab	-7417
▁hitch	-7418
▁homes	-7419
▁honor	-7420
▁hoses	-7421
▁impro	-7422
▁index	-7423
▁indig	-7424
▁kinds	-7425
▁knits	-7426
▁ladle	-7427
▁latex	-7428
▁leafy	-7429
▁liter	-7430
▁llama	-7431
▁manic	-7432
▁marks	-7433
▁meals	-7434
▁media	-7435
▁menus	-7436
▁might	-7437
▁mixed	-7438
▁mixes	-7439
▁monks	-7440
▁moved	-7441
▁needs	-7442
▁ollie	-7443
▁olymp	-7444
▁pages	-7445
▁pairs	-7446
▁panda	-7447
▁panel	-7448
▁parka	-7449
▁pause	-7450
▁pharm	-7451
▁poker	-7452
▁quilt	-7453
▁rakes	-7454
▁rises	-7455
▁route	-7456
▁ruler	-7457
▁sands	-7458
▁sauna	-7459
▁shake	-7460
▁shelf	-7461
▁sippy	-7462
▁sizes	-7463
▁sleds	-7464
▁snows	-7465
▁solar	-7466
▁spits	-7467
▁spout	-7468
▁stock	-7469
▁stony	-7470
▁study	-7471
▁suite	-7472
▁sweet	-7473
▁tasks	-7474
▁tasty	-7475
▁taxis	-7476
▁tells	-7477
▁tends	-7478
▁texas	-7479
▁threw	-7480
▁tiles	-7481
▁towed	-7482
▁trink	-7483
▁trips	-7484
▁trots	-7485
▁tutus	-7486
▁twent	-7487
▁twigs	-7488
▁views	-7489
▁vivid	-7490
▁welds	-7491
▁wheat	-7492
▁whose	-7493
▁wield	-7494
▁wrong	-7495
▁years	-7496
achioed	-7497
ersault	-7498
formers	-7499
icapped	-7500
iderman	-7501
ifornia	-7502
itation	-7503
merized	-7504
ometric	-7505
ortment	-7506
reached	-7507
reshing	-7508
ressing	-7509
undreds	-7510
xiously	-7511
▁Africa	-7512
▁Angels	-7513
▁Autumn	-7514
▁Batman	-7515
▁Berlin	-7516
▁Coffee	-7517
▁Commut	-7518
▁Dozens	-7519
▁Easter	-7520
▁Employ	-7521
▁Ethnic	-7522
▁France	-7523
▁French	-7524
▁Grouch	-7525
▁Hikers	-7526
▁Lakers	-7527
▁Latino	-7528
▁Mexico	-7529
▁Player	-7530
▁Skiers	-7531
▁Toyota	-7532
▁Twelve	-7533
▁adding	-7534
▁aerial	-7535
▁amused	-7536
▁ashore	-7537
▁awaits	-7538
▁awning	-7539
▁barbie	-7540
▁bathed	-7541
▁batons	-7542
▁beagle	-7543
▁better	-7544
▁blonds	-7545
▁blurry	-7546
▁bouncy	-7547
▁braces	-7548
▁briefs	-7549
▁bullet	-7550
▁bumper	-7551
▁canned	-7552
▁cereal	-7553
▁cheers	-7554
▁cleats	-7555
▁contin	-7556
▁corral	-7557
▁county	-7558
▁cracks	-7559
▁crotch	-7560
▁crouch	-7561
▁cutoff	-7562
▁cycles	-7563
▁dandel	-7564
▁darkly	-7565
▁dealer	-7566
▁decals	-7567
▁descri	-7568
▁digger	-7569
▁donuts	-7570
▁dreads	-7571
▁driven	-7572
▁duffel	-7573
▁dugout	-7574
▁enters	-7575
▁europe	-7576
▁execut	-7577
▁facade	-7578
▁fences	-7579
▁fleece	-7580
▁fliers	-7581
▁geisha	-7582
▁golfer	-7583
▁hatted	-7584
▁health	-7585
▁highly	-7586
▁holing	-7587
▁itself	-7588
▁jogger	-7589
▁kicker	-7590
▁kissed	-7591
▁knight	-7592
▁knives	-7593
▁landsc	-7594
▁launch	-7595
▁manual	-7596
▁marina	-7597
▁mosaic	-7598
▁mosque	-7599
▁napkin	-7600
▁needed	-7601
▁noodle	-7602
▁offers	-7603
▁outcro	-7604
▁parlor	-7605
▁pastel	-7606
▁pastor	-7607
▁patrol	-7608
▁paving	-7609
▁paying	-7610
▁picker	-7611
▁pointy	-7612
▁poncho	-7613
▁poorly	-7614
▁prayer	-7615
▁progra	-7616
▁proper	-7617
▁ragged	-7618
▁refuge	-7619
▁region	-7620
▁reluct	-7621
▁remove	-7622
▁report	-7623
▁resear	-7624
▁ripped	-7625
▁ritual	-7626
▁rowers	-7627
▁salmon	-7628
▁scoops	-7629
▁shaded	-7630
▁shrimp	-7631
▁signal	-7632
▁simult	-7633
▁sledge	-7634
▁sleigh	-7635
▁slowly	-7636
▁sparse	-7637
▁spiral	-7638
▁sponge	-7639
▁squirt	-7640
▁states	-7641
▁stetho	-7642
▁strewn	-7643
▁strobe	-7644
▁talkie	-7645
▁tanned	-7646
▁themed	-7647
▁timber	-7648
▁treats	-7649
▁trough	-7650
▁tulips	-7651
▁twirls	-7652
▁unicef	-7653
▁unison	-7654
▁uphill	-7655
▁vacant	-7656
▁waited	-7657
▁waking	-7658
▁walker	-7659
▁walkie	-7660
▁wallet	-7661
▁warmly	-7662
▁winded	-7663
▁wonder	-7664
▁zombie	-7665
boarders	-7666
daughter	-7667
kerchief	-7668
ortunity	-7669
ximately	-7670
▁Company	-7671
▁Dressed	-7672
▁Excited	-7673
▁Gymnast	-7674
▁Italian	-7675
▁Pitcher	-7676
▁Sitting	-7677
▁Student	-7678
▁Workmen	-7679
▁Younger	-7680
▁admires	-7681
▁agility	-7682
▁amazing	-7683
▁answers	-7684
▁applied	-7685
▁aquatic	-7686
▁arguing	-7687
▁arrival	-7688
▁attired	-7689
▁awnings	-7690
▁baggage	-7691
▁bagpipe	-7692
▁banquet	-7693
▁boating	-7694
▁bouncer	-7695
▁bounces	-7696
▁briskly	-7697
▁cabinet	-7698
▁captain	-7699
▁ceramic	-7700
▁cobbled	-7701
▁collide	-7702
▁content	-7703
▁crashed	-7704
▁crashes	-7705
▁crystal	-7706
▁curling	-7707
▁cushion	-7708
▁defends	-7709
▁dentist	-7710
▁diverse	-7711
▁ducking	-7712
▁dustpan	-7713
▁earbuds	-7714
▁emotion	-7715
▁engages	-7716
▁extends	-7717
▁extreme	-7718
▁festive	-7719
▁fitness	-7720
▁flamboy	-7721
▁flights	-7722
▁flooded	-7723
▁focuses	-7724
▁forrest	-7725
▁fortune	-7726
▁freeway	-7727
▁garment	-7728
▁graphic	-7729
▁grounds	-7730
▁grouped	-7731
▁growing	-7732
▁hairnet	-7733
▁hammers	-7734
▁handful	-7735
▁hurdles	-7736
▁infants	-7737
▁ironing	-7738
▁layered	-7739
▁liberty	-7740
▁lottery	-7741
▁lounges	-7742
▁machete	-7743
▁manhole	-7744
▁monster	-7745
▁mopping	-7746
▁natural	-7747
▁noodles	-7748
▁nursing	-7749
▁overall	-7750
▁partner	-7751
▁patches	-7752
▁pierced	-7753
▁pitched	-7754
▁pitches	-7755
▁pockets	-7756
▁ponchos	-7757
▁ponders	-7758
▁popping	-7759
▁pouting	-7760
▁powered	-7761
▁presses	-7762
▁prevent	-7763
▁propane	-7764
▁proudly	-7765
▁provide	-7766
▁pruning	-7767
▁pursued	-7768
▁racquet	-7769
▁railway	-7770
▁records	-7771
▁rectang	-7772
▁related	-7773
▁removed	-7774
▁removes	-7775
▁respect	-7776
▁rooster	-7777
▁samurai	-7778
▁sandpit	-7779
▁satchel	-7780
▁screams	-7781
▁secured	-7782
▁shading	-7783
▁shampoo	-7784
▁shelter	-7785
▁sipping	-7786
▁snowfla	-7787
▁solider	-7788
▁spiking	-7789
▁spilled	-7790
▁spreads	-7791
▁sprints	-7792
▁stained	-7793
▁statute	-7794
▁staying	-7795
▁sticker	-7796
▁streaks	-7797
▁streams	-7798
▁sunhats	-7799
▁takeout	-7800
▁technic	-7801
▁telling	-7802
▁testing	-7803
▁textile	-7804
▁tickets	-7805
▁tobacco	-7806
▁toilets	-7807
▁trouble	-7808
▁turbans	-7809
▁tuxedos	-7810
▁vacuums	-7811
▁violins	-7812
▁yawning	-7813
▁zombies	-7814
antically	-7815
▁Athletes	-7816
▁Colorful	-7817
▁Homeless	-7818
▁Monopoly	-7819
▁Nintendo	-7820
▁Overhead	-7821
▁Scottish	-7822
▁Soldiers	-7823
▁aluminum	-7824
▁animated	-7825
▁approach	-7826
▁arranged	-7827
▁assembly	-7828
▁attaches	-7829
▁backhand	-7830
▁battling	-7831
▁blacktop	-7832
▁bordered	-7833
▁campaign	-7834
▁canister	-7835
▁captured	-7836
▁captures	-7837
▁challeng	-7838
▁charging	-7839
▁contains	-7840
▁corridor	-7841
▁creative	-7842
▁darkness	-7843
▁descends	-7844
▁desolate	-7845
▁directed	-7846
▁director	-7847
▁drenched	-7848
▁dwelling	-7849
▁elevator	-7850
▁enclosed	-7851
▁equipped	-7852
▁explorer	-7853
▁explores	-7854
▁exposing	-7855
▁families	-7856
▁featured	-7857
▁forklift	-7858
▁friendly	-7859
▁frosting	-7860
▁gorgeous	-7861
▁graduate	-7862
▁gripping	-7863
▁handmade	-7864
▁headgear	-7865
▁holidays	-7866
▁horizont	-7867
▁huddling	-7868
▁informal	-7869
▁innertub	-7870
▁interior	-7871
▁intimate	-7872
▁investig	-7873
▁lakeside	-7874
▁landmark	-7875
▁lassoing	-7876
▁launches	-7877
▁leotards	-7878
▁littered	-7879
▁lollipop	-7880
▁maintain	-7881
▁maneuver	-7882
▁mirrored	-7883
▁mushroom	-7884
▁nibbling	-7885
▁numbered	-7886
▁observed	-7887
▁onlooker	-7888
▁ornament	-7889
▁overpass	-7890
▁packages	-7891
▁parasail	-7892
▁peaceful	-7893
▁pleasant	-7894
▁plugging	-7895
▁potatoes	-7896
▁pregnant	-7897
▁pressing	-7898
▁pretends	-7899
▁princess	-7900
▁pumpkins	-7901
▁recently	-7902
▁recliner	-7903
▁referees	-7904
▁released	-7905
▁services	-7906
▁shadowed	-7907
▁sheepdog	-7908
▁smirking	-7909
▁snowbank	-7910
▁snowshoe	-7911
▁sparkler	-7912
▁speakers	-7913
▁supervis	-7914
▁sweating	-7915
▁tethered	-7916
▁towering	-7917
▁trumpets	-7918
▁twilight	-7919
▁underway	-7920
▁uniquely	-7921
▁upcoming	-7922
▁utensils	-7923
▁wheeling	-7924
▁windsurf	-7925
▁wrapping	-7926
▁Fisherman	-7927
▁Fishermen	-7928
▁Hollister	-7929
▁Teenagers	-7930
▁addresses	-7931
▁advantage	-7932
▁adventure	-7933
▁affection	-7934
▁astronaut	-7935
▁bordering	-7936
▁breakfast	-7937
▁camcorder	-7938
▁cameramen	-7939
▁challenge	-7940
▁collected	-7941
▁coverings	-7942
▁craftsman	-7943
▁crocodile	-7944
▁	-7945
a	-7946
e	-7947
n	-7948
i	-7949
o	-7950
t	-7951
r	-7952
s	-7953
l	-7954
h	-7955
g	-7956
d	-7957
w	-7958
c	-7959
m	-7960
p	-7961
u	-7962
.	-7963
b	-7964
f	-7965
k	-7966
y	-7967
A	-7968
v	-7969
T	-7970
,	-7971
j	-7972
x	-7973
-	-7974
S	-7975
M	-7976
P	-7977
F	-7978
C	-7979
'	-7980
z	-7981
W	-7982
B	-7983
q	-7984
O	-7985
G	-7986
"	-7987
Y	-7988
L	-7989
I	-7990
D	-7991
H	-7992
E	-7993
R	-7994
2	-7995
N	-7996
